#include "pong/modelDistance.h"

const unsigned char pong_modelDistance_int8_tflite[] = {
  0x1c, 0x00, 0x00, 0x00, 0x54, 0x46, 0x4c, 0x33, 0x14, 0x00, 0x20, 0x00,
  0x1c, 0x00, 0x18, 0x00, 0x14, 0x00, 0x10, 0x00, 0x0c, 0x00, 0x00, 0x00,
  0x08, 0x00, 0x04, 0x00, 0x14, 0x00, 0x00, 0x00, 0x1c, 0x00, 0x00, 0x00,
  0x98, 0x00, 0x00, 0x00, 0xf0, 0x00, 0x00, 0x00, 0x94, 0x0a, 0x00, 0x00,
  0xa4, 0x0a, 0x00, 0x00, 0xfc, 0x1a, 0x00, 0x00, 0x03, 0x00, 0x00, 0x00,
  0x01, 0x00, 0x00, 0x00, 0x10, 0x00, 0x00, 0x00, 0x00, 0x00, 0x0a, 0x00,
  0x10, 0x00, 0x0c, 0x00, 0x08, 0x00, 0x04, 0x00, 0x0a, 0x00, 0x00, 0x00,
  0x0c, 0x00, 0x00, 0x00, 0x1c, 0x00, 0x00, 0x00, 0x3c, 0x00, 0x00, 0x00,
  0x0f, 0x00, 0x00, 0x00, 0x73, 0x65, 0x72, 0x76, 0x69, 0x6e, 0x67, 0x5f,
  0x64, 0x65, 0x66, 0x61, 0x75, 0x6c, 0x74, 0x00, 0x01, 0x00, 0x00, 0x00,
  0x04, 0x00, 0x00, 0x00, 0x90, 0xff, 0xff, 0xff, 0x0d, 0x00, 0x00, 0x00,
  0x04, 0x00, 0x00, 0x00, 0x08, 0x00, 0x00, 0x00, 0x6f, 0x75, 0x74, 0x70,
  0x75, 0x74, 0x5f, 0x30, 0x00, 0x00, 0x00, 0x00, 0x01, 0x00, 0x00, 0x00,
  0x04, 0x00, 0x00, 0x00, 0x4e, 0xf5, 0xff, 0xff, 0x04, 0x00, 0x00, 0x00,
  0x0f, 0x00, 0x00, 0x00, 0x6b, 0x65, 0x72, 0x61, 0x73, 0x5f, 0x74, 0x65,
  0x6e, 0x73, 0x6f, 0x72, 0x5f, 0x33, 0x31, 0x00, 0x02, 0x00, 0x00, 0x00,
  0x34, 0x00, 0x00, 0x00, 0x04, 0x00, 0x00, 0x00, 0xdc, 0xff, 0xff, 0xff,
  0x10, 0x00, 0x00, 0x00, 0x04, 0x00, 0x00, 0x00, 0x13, 0x00, 0x00, 0x00,
  0x43, 0x4f, 0x4e, 0x56, 0x45, 0x52, 0x53, 0x49, 0x4f, 0x4e, 0x5f, 0x4d,
  0x45, 0x54, 0x41, 0x44, 0x41, 0x54, 0x41, 0x00, 0x08, 0x00, 0x0c, 0x00,
  0x08, 0x00, 0x04, 0x00, 0x08, 0x00, 0x00, 0x00, 0x0f, 0x00, 0x00, 0x00,
  0x04, 0x00, 0x00, 0x00, 0x13, 0x00, 0x00, 0x00, 0x6d, 0x69, 0x6e, 0x5f,
  0x72, 0x75, 0x6e, 0x74, 0x69, 0x6d, 0x65, 0x5f, 0x76, 0x65, 0x72, 0x73,
  0x69, 0x6f, 0x6e, 0x00, 0x11, 0x00, 0x00, 0x00, 0xa0, 0x09, 0x00, 0x00,
  0x98, 0x09, 0x00, 0x00, 0x7c, 0x09, 0x00, 0x00, 0x3c, 0x09, 0x00, 0x00,
  0xec, 0x08, 0x00, 0x00, 0xdc, 0x06, 0x00, 0x00, 0x4c, 0x06, 0x00, 0x00,
  0x3c, 0x02, 0x00, 0x00, 0xac, 0x01, 0x00, 0x00, 0xbc, 0x00, 0x00, 0x00,
  0xb4, 0x00, 0x00, 0x00, 0xac, 0x00, 0x00, 0x00, 0xa4, 0x00, 0x00, 0x00,
  0x9c, 0x00, 0x00, 0x00, 0x94, 0x00, 0x00, 0x00, 0x74, 0x00, 0x00, 0x00,
  0x04, 0x00, 0x00, 0x00, 0x0e, 0xf6, 0xff, 0xff, 0x04, 0x00, 0x00, 0x00,
  0x60, 0x00, 0x00, 0x00, 0x0c, 0x00, 0x00, 0x00, 0x08, 0x00, 0x0e, 0x00,
  0x08, 0x00, 0x04, 0x00, 0x08, 0x00, 0x00, 0x00, 0x10, 0x00, 0x00, 0x00,
  0x28, 0x00, 0x00, 0x00, 0x00, 0x00, 0x06, 0x00, 0x08, 0x00, 0x04, 0x00,
  0x06, 0x00, 0x00, 0x00, 0x04, 0x00, 0x00, 0x00, 0x01, 0x00, 0x00, 0x00,
  0xeb, 0x03, 0x00, 0x00, 0x0c, 0x00, 0x18, 0x00, 0x14, 0x00, 0x10, 0x00,
  0x0c, 0x00, 0x04, 0x00, 0x0c, 0x00, 0x00, 0x00, 0x76, 0x52, 0xd7, 0x0b,
  0x51, 0x47, 0x0e, 0xf5, 0x02, 0x00, 0x00, 0x00, 0x02, 0x00, 0x00, 0x00,
  0x04, 0x00, 0x00, 0x00, 0x06, 0x00, 0x00, 0x00, 0x32, 0x2e, 0x32, 0x30,
  0x2e, 0x30, 0x00, 0x00, 0x7a, 0xf6, 0xff, 0xff, 0x04, 0x00, 0x00, 0x00,
  0x10, 0x00, 0x00, 0x00, 0x31, 0x2e, 0x31, 0x34, 0x2e, 0x30, 0x00, 0x00,
  0x00, 0x00, 0x00, 0x00, 0x00, 0x00, 0x00, 0x00, 0x64, 0xf6, 0xff, 0xff,
  0x68, 0xf6, 0xff, 0xff, 0x6c, 0xf6, 0xff, 0xff, 0x70, 0xf6, 0xff, 0xff,
  0x74, 0xf6, 0xff, 0xff, 0xaa, 0xf6, 0xff, 0xff, 0x04, 0x00, 0x00, 0x00,
  0xe0, 0x00, 0x00, 0x00, 0x19, 0x7f, 0x52, 0x2c, 0x36, 0xff, 0xf8, 0x2b,
  0x7f, 0xcf, 0x2d, 0x3b, 0x96, 0x05, 0x55, 0x1a, 0xf8, 0x40, 0x81, 0xe4,
  0x6b, 0xe9, 0x27, 0x14, 0x22, 0xb1, 0x81, 0xd0, 0x59, 0x01, 0x92, 0x81,
  0xdf, 0xd1, 0xae, 0x58, 0x1c, 0x7f, 0x07, 0xc4, 0xe0, 0xf0, 0x27, 0x39,
  0x9b, 0x81, 0x30, 0xff, 0x17, 0x9b, 0x4c, 0x82, 0x7f, 0x0d, 0x23, 0x0a,
  0x6f, 0x7f, 0x64, 0x3e, 0x66, 0x1a, 0x3c, 0x86, 0xe9, 0xdf, 0x07, 0x81,
  0xa3, 0xf7, 0x7a, 0x81, 0x83, 0x1b, 0xe5, 0x5f, 0x69, 0x75, 0x02, 0xba,
  0xde, 0x7c, 0x29, 0x7f, 0x53, 0x02, 0xc5, 0xc1, 0x2f, 0xc1, 0x7f, 0x44,
  0x78, 0xf4, 0xef, 0x29, 0x81, 0xd3, 0x81, 0x3e, 0x8e, 0x03, 0x55, 0xea,
  0x0c, 0x6d, 0x61, 0xeb, 0x1d, 0x81, 0x2f, 0xd5, 0xf6, 0x8e, 0xbb, 0x07,
  0x5d, 0xd5, 0x7f, 0xe1, 0x76, 0x81, 0x47, 0xc0, 0xc9, 0x1e, 0x86, 0x79,
  0xe4, 0x2b, 0x7d, 0x7f, 0x31, 0xfe, 0x92, 0x3e, 0x7f, 0xd9, 0x12, 0x0e,
  0x08, 0xef, 0xb6, 0x21, 0x43, 0xb0, 0x7f, 0x02, 0x7f, 0x3c, 0xc8, 0xda,
  0x1d, 0x5c, 0xa3, 0x0d, 0x10, 0xed, 0x29, 0x7f, 0xe4, 0x0e, 0x7f, 0x36,
  0x56, 0x65, 0x39, 0x16, 0xef, 0x03, 0x7f, 0xd7, 0xd7, 0x3c, 0xf9, 0xb4,
  0x23, 0xf1, 0x62, 0xa9, 0x7f, 0x3e, 0x81, 0xb9, 0x5c, 0x23, 0x32, 0xd7,
  0x8f, 0x51, 0xb5, 0x8c, 0x0b, 0xf9, 0x0e, 0x7f, 0xe4, 0x7f, 0x09, 0xb7,
  0xe5, 0xdc, 0xa5, 0xb8, 0xd5, 0x0c, 0xa5, 0x11, 0x35, 0x7f, 0x5a, 0x30,
  0xa8, 0x63, 0xf4, 0x8c, 0x7f, 0x2a, 0xc1, 0xb5, 0x41, 0x62, 0x76, 0x7f,
  0x96, 0xf7, 0xff, 0xff, 0x04, 0x00, 0x00, 0x00, 0x80, 0x00, 0x00, 0x00,
  0x7c, 0x02, 0x00, 0x00, 0x7f, 0x01, 0x00, 0x00, 0x94, 0x05, 0x00, 0x00,
  0xbe, 0xfe, 0xff, 0xff, 0xa8, 0xe5, 0xff, 0xff, 0x58, 0xfd, 0xff, 0xff,
  0x41, 0x14, 0x00, 0x00, 0x5a, 0x10, 0x00, 0x00, 0x64, 0x00, 0x00, 0x00,
  0x00, 0x00, 0x00, 0x00, 0xf3, 0x0c, 0x00, 0x00, 0x00, 0xff, 0xff, 0xff,
  0x1e, 0x0a, 0x00, 0x00, 0xf9, 0xfd, 0xff, 0xff, 0x16, 0xfd, 0xff, 0xff,
  0x14, 0x1d, 0x00, 0x00, 0x54, 0x0a, 0x00, 0x00, 0xbb, 0x0b, 0x00, 0x00,
  0xc6, 0x0b, 0x00, 0x00, 0x16, 0xe8, 0xff, 0xff, 0x98, 0x10, 0x00, 0x00,
  0xcb, 0x0d, 0x00, 0x00, 0xc6, 0x22, 0x00, 0x00, 0xf4, 0x01, 0x00, 0x00,
  0x78, 0x06, 0x00, 0x00, 0x95, 0x0e, 0x00, 0x00, 0x2c, 0xfc, 0xff, 0xff,
  0x6d, 0x08, 0x00, 0x00, 0xfa, 0x13, 0x00, 0x00, 0xba, 0xf6, 0xff, 0xff,
  0x61, 0x11, 0x00, 0x00, 0x0d, 0x02, 0x00, 0x00, 0x22, 0xf8, 0xff, 0xff,
  0x04, 0x00, 0x00, 0x00, 0x00, 0x04, 0x00, 0x00, 0x44, 0x22, 0xb3, 0xf3,
  0xbe, 0x37, 0xbb, 0xd3, 0x0a, 0x29, 0xa4, 0x02, 0xf0, 0x2c, 0x26, 0xe5,
  0x06, 0x1e, 0x4a, 0x0e, 0x1a, 0x48, 0x21, 0xf6, 0x3f, 0x05, 0x31, 0x81,
  0x2a, 0x18, 0x03, 0xcc, 0xb6, 0xf8, 0xfb, 0xd5, 0x00, 0xe7, 0xb6, 0xcf,
  0x15, 0x39, 0xba, 0x0e, 0x84, 0xb7, 0x05, 0xdd, 0x7f, 0x17, 0xdb, 0x2b,
  0xfa, 0x17, 0xec, 0x8a, 0x21, 0xaf, 0xbc, 0xe2, 0x4b, 0x22, 0xfa, 0xd9,
  0x07, 0xec, 0x09, 0xe4, 0xe7, 0xfb, 0x11, 0x12, 0xfa, 0xca, 0x24, 0x0d,
  0xcd, 0x35, 0x46, 0xea, 0x39, 0xb3, 0x58, 0x70, 0xf8, 0xff, 0x64, 0x3f,
  0xd6, 0x52, 0xef, 0x7f, 0x23, 0x3a, 0xc2, 0xe7, 0x30, 0xc7, 0xf9, 0xed,
  0x09, 0xbc, 0x00, 0x0f, 0x2e, 0x23, 0x38, 0x2d, 0x03, 0xb7, 0x44, 0xf0,
  0x7f, 0xa2, 0x08, 0xf2, 0x04, 0xfa, 0x5f, 0xfd, 0xd6, 0x33, 0x0f, 0x51,
  0x64, 0x30, 0xca, 0x48, 0xd5, 0xb9, 0xa9, 0xa2, 0x4f, 0x20, 0x14, 0xcc,
  0x94, 0x69, 0x20, 0x31, 0x51, 0x67, 0xdb, 0xe7, 0xd9, 0x81, 0x35, 0x5e,
  0xeb, 0xd0, 0x13, 0x0d, 0x8f, 0x5a, 0xb3, 0xd5, 0x23, 0xcc, 0x03, 0xef,
  0x54, 0x0b, 0xc3, 0xe5, 0x2b, 0x20, 0x1c, 0x8c, 0xc8, 0x3b, 0x30, 0xf5,
  0xef, 0x36, 0x53, 0xc8, 0x7f, 0xf3, 0x30, 0xf8, 0xdd, 0x2d, 0x3e, 0xf7,
  0x3e, 0x0b, 0x08, 0xf1, 0x6e, 0xde, 0xcc, 0x16, 0x1c, 0x1d, 0x68, 0x42,
  0x42, 0x01, 0x00, 0x2c, 0x5b, 0xd2, 0xf9, 0x4e, 0xda, 0x34, 0xe1, 0x7f,
  0xa7, 0xb1, 0xad, 0xde, 0x43, 0x08, 0xb0, 0x30, 0xf9, 0xfc, 0x40, 0x21,
  0x92, 0x8e, 0xff, 0xd8, 0x17, 0xf2, 0x04, 0x23, 0xf9, 0xd2, 0x39, 0xef,
  0xf1, 0xf7, 0x2e, 0x04, 0x37, 0xf0, 0x3d, 0xe9, 0x7f, 0xe3, 0x27, 0x0b,
  0x19, 0xf6, 0x13, 0xf5, 0xf2, 0xde, 0x2a, 0x43, 0x42, 0x11, 0xe0, 0x40,
  0x26, 0xd9, 0x9e, 0xca, 0x44, 0x2b, 0xa0, 0xd4, 0xe0, 0xe3, 0xb4, 0xf5,
  0xbf, 0x45, 0x72, 0xf3, 0xff, 0x7f, 0x17, 0xe9, 0x46, 0x44, 0x08, 0x1f,
  0x6f, 0x56, 0xec, 0x44, 0x34, 0x31, 0xb3, 0x3c, 0x49, 0xa5, 0x3c, 0x1b,
  0x0f, 0x21, 0xf0, 0x31, 0x4b, 0xe4, 0xa8, 0x52, 0x21, 0xf7, 0x22, 0x0e,
  0x1c, 0x59, 0x39, 0xa4, 0x1b, 0x3b, 0xf2, 0x33, 0xfb, 0xaa, 0x4a, 0xf4,
  0x7f, 0xf1, 0xe3, 0x07, 0x25, 0xec, 0x66, 0x95, 0x70, 0x5d, 0x07, 0xa1,
  0x8c, 0x78, 0x19, 0xa8, 0x06, 0x42, 0xc9, 0x8f, 0x50, 0x33, 0x36, 0x89,
  0x43, 0x95, 0x25, 0x81, 0xab, 0x56, 0x5d, 0xbe, 0x95, 0xca, 0x39, 0xbf,
  0x55, 0x0c, 0x4e, 0xa4, 0xc3, 0x01, 0x31, 0x7f, 0x54, 0x5f, 0xe0, 0x1c,
  0xb7, 0x44, 0x16, 0x6b, 0x9b, 0x6f, 0xb9, 0x65, 0x21, 0xdc, 0xb1, 0x4a,
  0x27, 0x2d, 0xd4, 0xbf, 0xd0, 0xf1, 0x7c, 0x04, 0x14, 0xe0, 0x11, 0x0a,
  0x2f, 0xec, 0x16, 0x6d, 0xed, 0x12, 0xa1, 0xce, 0x9b, 0x50, 0x3f, 0x5f,
  0xbc, 0x4c, 0xf9, 0xed, 0x89, 0x32, 0xe7, 0x1e, 0x29, 0xf6, 0x38, 0xc4,
  0x1d, 0x81, 0xe1, 0x30, 0x43, 0x4d, 0x02, 0xb6, 0xd9, 0xe8, 0x7d, 0xd6,
  0x26, 0xd9, 0x0b, 0x3f, 0x3b, 0x75, 0x2b, 0x04, 0x82, 0xab, 0xc5, 0x5c,
  0xf0, 0x12, 0xc6, 0x08, 0xdf, 0xc6, 0x03, 0x1f, 0x81, 0xc7, 0x25, 0x45,
  0x15, 0x06, 0xee, 0xe2, 0x2f, 0x03, 0x0f, 0x39, 0x21, 0xdc, 0xb0, 0xfe,
  0xfc, 0x18, 0x0f, 0xf4, 0xc8, 0x21, 0x37, 0xce, 0xb5, 0x35, 0x04, 0xff,
  0x37, 0x20, 0xf2, 0xb9, 0x7f, 0x2e, 0xfe, 0xf4, 0x52, 0xf0, 0xd2, 0xcf,
  0xfb, 0xd8, 0xa6, 0xb5, 0x45, 0xf4, 0xb3, 0x0b, 0x25, 0x32, 0xf0, 0x13,
  0xdf, 0x78, 0xc5, 0x81, 0x08, 0xe3, 0xf6, 0x45, 0x5f, 0xe1, 0x04, 0x84,
  0x18, 0x1c, 0xaa, 0xbe, 0x2f, 0x31, 0x27, 0xfe, 0xcc, 0x17, 0x64, 0xc5,
  0xce, 0xce, 0x43, 0x27, 0x36, 0x15, 0x5d, 0xcf, 0x7f, 0xbf, 0xc8, 0x2c,
  0xf4, 0x31, 0x30, 0xdf, 0xc0, 0x03, 0xce, 0x5f, 0x6b, 0x2e, 0xdc, 0x47,
  0xfb, 0xeb, 0x27, 0x19, 0x02, 0x23, 0xe4, 0x23, 0x25, 0xf0, 0xb4, 0x0c,
  0xec, 0x2e, 0x1a, 0x39, 0x81, 0x4e, 0xeb, 0xb5, 0xcb, 0x2d, 0xbc, 0xea,
  0x21, 0xf2, 0xfd, 0xbb, 0xdb, 0x04, 0xdf, 0x0f, 0xfd, 0xf6, 0xf6, 0x36,
  0xeb, 0xe6, 0x7f, 0xcf, 0x0d, 0xe6, 0xd3, 0xd4, 0x36, 0xc6, 0xdd, 0x13,
  0x1d, 0xb8, 0x21, 0x5c, 0x58, 0xf2, 0xce, 0x3a, 0x04, 0x34, 0xdd, 0xea,
  0x2e, 0x00, 0x3e, 0x3b, 0x1a, 0x07, 0x34, 0xb2, 0xc0, 0x59, 0x6e, 0x09,
  0xf2, 0xc8, 0x54, 0x67, 0x01, 0x4e, 0x1d, 0x59, 0xf6, 0x81, 0xf4, 0x57,
  0xf5, 0xf3, 0x15, 0xd9, 0xc5, 0xc5, 0xac, 0x4f, 0x1b, 0xd9, 0x33, 0x63,
  0x0f, 0x27, 0xea, 0xd2, 0x10, 0xb8, 0x7f, 0xde, 0xf0, 0xec, 0x47, 0xfe,
  0x2f, 0x03, 0x0d, 0xed, 0x15, 0xb8, 0x36, 0x06, 0xdc, 0x2c, 0x24, 0x0f,
  0xdf, 0x3c, 0xcb, 0xf2, 0x4d, 0xd8, 0xf1, 0xe9, 0x32, 0x88, 0xf7, 0xba,
  0xdb, 0x79, 0x3f, 0xee, 0xa0, 0x02, 0x3d, 0x74, 0xdc, 0x1f, 0x9b, 0x84,
  0xa7, 0xa6, 0x8f, 0x4a, 0x81, 0xb6, 0xc5, 0x96, 0x0c, 0xdd, 0xbe, 0x59,
  0xb8, 0xe9, 0x31, 0x99, 0x2e, 0xa0, 0xeb, 0xd4, 0x37, 0xaf, 0x18, 0xe2,
  0x2f, 0xee, 0x29, 0x07, 0x55, 0x0a, 0xed, 0xdc, 0x4d, 0xb0, 0x05, 0x44,
  0x34, 0x09, 0x4b, 0xdf, 0x2c, 0xf5, 0xca, 0x21, 0x1f, 0x7f, 0xf7, 0x36,
  0x0b, 0x23, 0xe8, 0xfc, 0x23, 0x11, 0xb8, 0xd1, 0x34, 0x1e, 0x9d, 0xce,
  0x00, 0x47, 0x06, 0x2b, 0x81, 0x3c, 0x18, 0xec, 0xc9, 0x31, 0xaa, 0x10,
  0x41, 0x00, 0xe6, 0xc2, 0xfb, 0xee, 0xf1, 0xe1, 0x2c, 0xef, 0x49, 0xbf,
  0xe7, 0xde, 0x50, 0x9d, 0xfb, 0x3e, 0x45, 0x28, 0x16, 0xc4, 0x1e, 0x18,
  0x11, 0x81, 0x02, 0x2f, 0x40, 0x4b, 0xe6, 0x08, 0xbf, 0xb6, 0x2d, 0x3c,
  0x99, 0x54, 0x35, 0xec, 0x38, 0x13, 0xfc, 0xf5, 0xcc, 0x37, 0xfc, 0xd2,
  0x0b, 0x2b, 0xa2, 0x22, 0x10, 0x37, 0xee, 0xd9, 0x81, 0x16, 0xf3, 0xbd,
  0x01, 0x06, 0xe1, 0x19, 0x28, 0xd5, 0xde, 0xff, 0x0b, 0xe0, 0xfb, 0xca,
  0x08, 0x79, 0x62, 0x5d, 0x10, 0x1f, 0xb1, 0xe9, 0x07, 0xbc, 0xd2, 0xd8,
  0x40, 0x7f, 0xa7, 0x2e, 0xdf, 0x59, 0x3b, 0x18, 0x22, 0x2b, 0x01, 0x3f,
  0x2d, 0x2e, 0x36, 0xa9, 0x81, 0xef, 0x6e, 0xb5, 0xc2, 0xdb, 0x13, 0x1a,
  0xf5, 0xc1, 0x1c, 0x29, 0x09, 0xff, 0x48, 0x38, 0x32, 0x13, 0xd9, 0x19,
  0xd1, 0x81, 0xf9, 0x22, 0x57, 0x40, 0xce, 0x3b, 0xab, 0xed, 0x2a, 0x21,
  0xdc, 0xeb, 0x2c, 0x2a, 0x23, 0xd4, 0xdd, 0xeb, 0xf0, 0xf0, 0x81, 0xac,
  0x4f, 0xe0, 0xaf, 0xdd, 0xe6, 0x15, 0x36, 0x1c, 0x11, 0x53, 0xf6, 0xfe,
  0xd5, 0x0c, 0xd4, 0x2f, 0x1f, 0xf5, 0x43, 0x11, 0x1d, 0xf8, 0x2d, 0xe6,
  0xbe, 0x04, 0x4b, 0xe2, 0xcf, 0x08, 0x1e, 0x7b, 0x91, 0x0f, 0xee, 0xaf,
  0xe0, 0xfe, 0xfb, 0x59, 0x9d, 0x1e, 0x2a, 0x4c, 0x7f, 0xcd, 0xeb, 0xff,
  0x24, 0x3d, 0x0e, 0x1c, 0xa6, 0x3c, 0x41, 0x10, 0xea, 0x07, 0xcd, 0x28,
  0xde, 0xeb, 0x36, 0x15, 0x3e, 0xe0, 0x06, 0x37, 0xd8, 0x38, 0x28, 0xd6,
  0x25, 0x8e, 0x25, 0x25, 0x25, 0xe0, 0x63, 0xd2, 0xe8, 0xf0, 0xd5, 0x10,
  0x7f, 0x2f, 0xce, 0x22, 0x99, 0x17, 0xf9, 0x61, 0xf4, 0xb4, 0xe7, 0x8f,
  0x84, 0x2f, 0x14, 0x13, 0x33, 0x34, 0xf2, 0x63, 0x30, 0x2a, 0x59, 0xb6,
  0x4c, 0x81, 0xce, 0x47, 0xaf, 0xb2, 0x3e, 0x4d, 0xbd, 0x11, 0xf3, 0xa2,
  0x2e, 0xfc, 0xff, 0xff, 0x04, 0x00, 0x00, 0x00, 0x80, 0x00, 0x00, 0x00,
  0xcc, 0x00, 0x00, 0x00, 0x00, 0x00, 0x00, 0x00, 0xfb, 0x00, 0x00, 0x00,
  0x71, 0x06, 0x00, 0x00, 0xc1, 0xfc, 0xff, 0xff, 0x9c, 0x04, 0x00, 0x00,
  0xee, 0x10, 0x00, 0x00, 0x6d, 0x04, 0x00, 0x00, 0x9b, 0x0c, 0x00, 0x00,
  0x71, 0xfe, 0xff, 0xff, 0x00, 0x00, 0x00, 0x00, 0x10, 0xf9, 0xff, 0xff,
  0xa9, 0x01, 0x00, 0x00, 0x42, 0x07, 0x00, 0x00, 0x37, 0xfc, 0xff, 0xff,
  0x57, 0xfa, 0xff, 0xff, 0xef, 0x00, 0x00, 0x00, 0x79, 0x01, 0x00, 0x00,
  0xae, 0x00, 0x00, 0x00, 0xc0, 0x0d, 0x00, 0x00, 0xcd, 0x06, 0x00, 0x00,
  0xa7, 0xf9, 0xff, 0xff, 0x17, 0x01, 0x00, 0x00, 0x5e, 0x00, 0x00, 0x00,
  0x76, 0x03, 0x00, 0x00, 0xfa, 0x01, 0x00, 0x00, 0x37, 0x0f, 0x00, 0x00,
  0xe2, 0x04, 0x00, 0x00, 0x55, 0x04, 0x00, 0x00, 0x24, 0x01, 0x00, 0x00,
  0x0f, 0x03, 0x00, 0x00, 0x0b, 0xfc, 0xff, 0xff, 0xba, 0xfc, 0xff, 0xff,
  0x04, 0x00, 0x00, 0x00, 0x00, 0x02, 0x00, 0x00, 0x36, 0xd5, 0x45, 0x38,
  0xd3, 0xdb, 0x0b, 0x38, 0x53, 0x2c, 0xf5, 0xe8, 0x7f, 0x02, 0x36, 0x2b,
  0x3b, 0xf0, 0x11, 0x1f, 0x37, 0x24, 0xf9, 0xe6, 0xc9, 0xc6, 0xd6, 0x0e,
  0x3a, 0xb4, 0x51, 0xfe, 0x39, 0x24, 0x16, 0x32, 0x2f, 0x1d, 0x53, 0x24,
  0xa8, 0x07, 0x4f, 0x81, 0xa7, 0x04, 0xb6, 0xfb, 0x94, 0xbc, 0xdc, 0x87,
  0x51, 0xac, 0xe9, 0x42, 0xfd, 0x14, 0x31, 0x09, 0xc5, 0xd4, 0x2e, 0x62,
  0xf0, 0x36, 0x50, 0x18, 0xd8, 0x5a, 0xc0, 0x30, 0x45, 0x16, 0xf1, 0x15,
  0x7f, 0x02, 0xe4, 0x53, 0x0e, 0x66, 0x54, 0xb3, 0xdb, 0xf9, 0x3f, 0x50,
  0xdd, 0xf9, 0x11, 0xeb, 0xe9, 0x54, 0x26, 0x10, 0x67, 0x44, 0xbc, 0xee,
  0xfd, 0xda, 0x3d, 0xbf, 0x05, 0x33, 0x00, 0xd0, 0xc0, 0xff, 0x69, 0x47,
  0xcb, 0x7f, 0xda, 0xfe, 0xcc, 0x1e, 0xd5, 0x4a, 0xcf, 0x6e, 0x23, 0x22,
  0x6b, 0x31, 0x1f, 0x0f, 0xa7, 0x68, 0xeb, 0xc5, 0x12, 0x8a, 0xaf, 0x10,
  0x83, 0x8e, 0xd2, 0x9a, 0x07, 0x3f, 0x07, 0x7f, 0x0f, 0xa3, 0x6f, 0x06,
  0x28, 0x68, 0xd4, 0x38, 0xc3, 0xff, 0xde, 0xad, 0xf1, 0xc3, 0xb0, 0x0a,
  0xf6, 0x56, 0xf3, 0x26, 0x40, 0x92, 0x7f, 0x98, 0xe2, 0xfd, 0xaf, 0x39,
  0xae, 0x5f, 0xc8, 0x2b, 0x2a, 0x33, 0x36, 0x6e, 0xf2, 0xfe, 0xa3, 0xd7,
  0xda, 0x0d, 0x4b, 0x09, 0xf7, 0x6b, 0x21, 0xd3, 0xbb, 0xf7, 0xff, 0x24,
  0xdc, 0x6a, 0xc2, 0xe4, 0xec, 0x15, 0x0a, 0x0c, 0xeb, 0x05, 0x0e, 0xf1,
  0x95, 0xf3, 0xe2, 0xca, 0xbd, 0x9a, 0x61, 0x89, 0xb9, 0x4c, 0xad, 0xe8,
  0x93, 0x9b, 0xcf, 0x81, 0xb4, 0x2e, 0x1d, 0x83, 0xeb, 0x18, 0xfa, 0xc9,
  0x83, 0x85, 0x5e, 0x79, 0xd9, 0x68, 0x81, 0x08, 0xc6, 0x02, 0xb4, 0x5a,
  0xfe, 0x84, 0x86, 0xae, 0x9e, 0xc4, 0x91, 0xe9, 0x38, 0xe5, 0xd3, 0x11,
  0xe6, 0xc2, 0x4b, 0x03, 0xc3, 0xd7, 0xef, 0x18, 0xe4, 0xcd, 0x32, 0xef,
  0x61, 0x55, 0x35, 0x81, 0x20, 0x83, 0x34, 0x0c, 0x6a, 0x45, 0x1b, 0xea,
  0x32, 0x1d, 0xe4, 0x4d, 0x07, 0xc3, 0xe4, 0x19, 0xb0, 0xf5, 0xfc, 0xde,
  0x16, 0xff, 0x1f, 0x14, 0xdc, 0x1f, 0x20, 0x16, 0x81, 0x16, 0xb9, 0xd7,
  0x15, 0xc3, 0x26, 0x2e, 0x2d, 0xff, 0x31, 0x95, 0x27, 0xb8, 0xf5, 0x47,
  0xc3, 0x08, 0x40, 0xe1, 0xd1, 0xf9, 0xdd, 0x47, 0xd0, 0xff, 0x47, 0x3f,
  0xb7, 0x01, 0xec, 0xeb, 0x06, 0x2c, 0xb6, 0xa0, 0x61, 0x81, 0x2b, 0x2e,
  0x6a, 0xe3, 0x21, 0x8c, 0x3f, 0xf8, 0xdb, 0x51, 0x08, 0x07, 0x38, 0xf3,
  0x1b, 0x23, 0xd3, 0x5e, 0xb3, 0x29, 0xcb, 0x23, 0x06, 0x09, 0xed, 0x9c,
  0xe2, 0xdb, 0x96, 0x02, 0x24, 0xe4, 0xe1, 0x17, 0xfa, 0xf6, 0x67, 0xfe,
  0x57, 0x9e, 0x81, 0x34, 0x15, 0xfa, 0xee, 0xb4, 0xd8, 0xba, 0xc2, 0xd8,
  0x92, 0x9a, 0xbe, 0x8b, 0xeb, 0xb1, 0x1e, 0xf8, 0x4c, 0xe1, 0x63, 0x8b,
  0x8a, 0x4c, 0xd1, 0xbd, 0x5e, 0x94, 0x22, 0x0e, 0x7f, 0x36, 0x82, 0xe4,
  0x05, 0xeb, 0x04, 0x08, 0x32, 0xbf, 0xb4, 0x81, 0x40, 0xb6, 0x03, 0xf5,
  0x37, 0x2c, 0xcf, 0x34, 0x8f, 0x36, 0x12, 0x73, 0xcc, 0x79, 0xe1, 0xd7,
  0x88, 0x22, 0xfc, 0x6f, 0x21, 0x49, 0x21, 0xf9, 0x63, 0xeb, 0xa3, 0x22,
  0xff, 0x12, 0xe3, 0xad, 0x86, 0xdf, 0x1b, 0x59, 0x2e, 0xea, 0x10, 0x8c,
  0x45, 0xe9, 0x1e, 0x94, 0xac, 0x6b, 0xe1, 0xe3, 0x26, 0xcf, 0x3b, 0xf5,
  0x93, 0x36, 0xfc, 0xf7, 0xb1, 0xf7, 0xcc, 0x81, 0x51, 0x0f, 0x0a, 0xf0,
  0x15, 0x53, 0x12, 0x1e, 0x3e, 0x08, 0x32, 0xc9, 0x7b, 0xfb, 0x0e, 0x48,
  0x27, 0x7f, 0xda, 0x11, 0xc1, 0xf2, 0x3b, 0x23, 0x1c, 0x27, 0xea, 0xd3,
  0x4a, 0xd5, 0x0e, 0x20, 0xc6, 0xfe, 0xff, 0xff, 0x04, 0x00, 0x00, 0x00,
  0x40, 0x00, 0x00, 0x00, 0x90, 0xff, 0xff, 0xff, 0x44, 0xf7, 0xff, 0xff,
  0xa8, 0x02, 0x00, 0x00, 0x57, 0x06, 0x00, 0x00, 0x00, 0x00, 0x00, 0x00,
  0x6f, 0x04, 0x00, 0x00, 0x6c, 0xfd, 0xff, 0xff, 0xca, 0xfd, 0xff, 0xff,
  0x50, 0x04, 0x00, 0x00, 0x9f, 0x02, 0x00, 0x00, 0x6b, 0x06, 0x00, 0x00,
  0x23, 0x00, 0x00, 0x00, 0x00, 0x00, 0x00, 0x00, 0xa7, 0xfd, 0xff, 0xff,
  0x00, 0x00, 0x00, 0x00, 0x65, 0x05, 0x00, 0x00, 0x12, 0xff, 0xff, 0xff,
  0x04, 0x00, 0x00, 0x00, 0x30, 0x00, 0x00, 0x00, 0xe4, 0xf4, 0x0c, 0x81,
  0xd6, 0xff, 0x1a, 0xfd, 0x5f, 0x20, 0x53, 0x94, 0xe5, 0xca, 0xd4, 0x89,
  0xae, 0x19, 0x37, 0x38, 0x47, 0x29, 0x0e, 0xda, 0xbc, 0x81, 0xc0, 0xca,
  0xdf, 0x63, 0x10, 0x21, 0x68, 0xd9, 0x60, 0x0f, 0xad, 0x88, 0xce, 0x4b,
  0x21, 0x94, 0x36, 0x7f, 0x07, 0xbe, 0x05, 0x69, 0x4e, 0xff, 0xff, 0xff,
  0x04, 0x00, 0x00, 0x00, 0x0c, 0x00, 0x00, 0x00, 0xc9, 0x00, 0x00, 0x00,
  0xc7, 0xff, 0xff, 0xff, 0x6f, 0xff, 0xff, 0xff, 0x34, 0xff, 0xff, 0xff,
  0x38, 0xff, 0xff, 0xff, 0x0f, 0x00, 0x00, 0x00, 0x4d, 0x4c, 0x49, 0x52,
  0x20, 0x43, 0x6f, 0x6e, 0x76, 0x65, 0x72, 0x74, 0x65, 0x64, 0x2e, 0x00,
  0x01, 0x00, 0x00, 0x00, 0x14, 0x00, 0x00, 0x00, 0x00, 0x00, 0x0e, 0x00,
  0x18, 0x00, 0x14, 0x00, 0x10, 0x00, 0x0c, 0x00, 0x08, 0x00, 0x04, 0x00,
  0x0e, 0x00, 0x00, 0x00, 0x14, 0x00, 0x00, 0x00, 0x1c, 0x00, 0x00, 0x00,
  0x70, 0x01, 0x00, 0x00, 0x74, 0x01, 0x00, 0x00, 0x78, 0x01, 0x00, 0x00,
  0x04, 0x00, 0x00, 0x00, 0x6d, 0x61, 0x69, 0x6e, 0x00, 0x00, 0x00, 0x00,
  0x05, 0x00, 0x00, 0x00, 0x18, 0x01, 0x00, 0x00, 0xd0, 0x00, 0x00, 0x00,
  0x88, 0x00, 0x00, 0x00, 0x50, 0x00, 0x00, 0x00, 0x14, 0x00, 0x00, 0x00,
  0x00, 0x00, 0x0e, 0x00, 0x1a, 0x00, 0x14, 0x00, 0x10, 0x00, 0x0c, 0x00,
  0x0b, 0x00, 0x04, 0x00, 0x0e, 0x00, 0x00, 0x00, 0x1c, 0x00, 0x00, 0x00,
  0x00, 0x00, 0x00, 0x09, 0x1c, 0x00, 0x00, 0x00, 0x20, 0x00, 0x00, 0x00,
  0x01, 0x00, 0x00, 0x00, 0x00, 0x00, 0x06, 0x00, 0x08, 0x00, 0x04, 0x00,
  0x06, 0x00, 0x00, 0x00, 0x00, 0x00, 0x80, 0x3f, 0x01, 0x00, 0x00, 0x00,
  0x0d, 0x00, 0x00, 0x00, 0x01, 0x00, 0x00, 0x00, 0x0c, 0x00, 0x00, 0x00,
  0x96, 0xff, 0xff, 0xff, 0x14, 0x00, 0x00, 0x00, 0x00, 0x00, 0x00, 0x08,
  0x10, 0x00, 0x00, 0x00, 0x14, 0x00, 0x00, 0x00, 0x04, 0x00, 0x04, 0x00,
  0x04, 0x00, 0x00, 0x00, 0x01, 0x00, 0x00, 0x00, 0x0c, 0x00, 0x00, 0x00,
  0x03, 0x00, 0x00, 0x00, 0x0b, 0x00, 0x00, 0x00, 0x02, 0x00, 0x00, 0x00,
  0x01, 0x00, 0x00, 0x00, 0xca, 0xff, 0xff, 0xff, 0x10, 0x00, 0x00, 0x00,
  0x00, 0x00, 0x00, 0x08, 0x10, 0x00, 0x00, 0x00, 0x14, 0x00, 0x00, 0x00,
  0x76, 0xff, 0xff, 0xff, 0x00, 0x00, 0x00, 0x01, 0x01, 0x00, 0x00, 0x00,
  0x0b, 0x00, 0x00, 0x00, 0x03, 0x00, 0x00, 0x00, 0x0a, 0x00, 0x00, 0x00,
  0x04, 0x00, 0x00, 0x00, 0x03, 0x00, 0x00, 0x00, 0x00, 0x00, 0x0e, 0x00,
  0x14, 0x00, 0x00, 0x00, 0x10, 0x00, 0x0c, 0x00, 0x0b, 0x00, 0x04, 0x00,
  0x0e, 0x00, 0x00, 0x00, 0x10, 0x00, 0x00, 0x00, 0x00, 0x00, 0x00, 0x08,
  0x10, 0x00, 0x00, 0x00, 0x14, 0x00, 0x00, 0x00, 0xba, 0xff, 0xff, 0xff,
  0x00, 0x00, 0x00, 0x01, 0x01, 0x00, 0x00, 0x00, 0x0a, 0x00, 0x00, 0x00,
  0x03, 0x00, 0x00, 0x00, 0x09, 0x00, 0x00, 0x00, 0x06, 0x00, 0x00, 0x00,
  0x05, 0x00, 0x00, 0x00, 0x00, 0x00, 0x0e, 0x00, 0x16, 0x00, 0x00, 0x00,
  0x10, 0x00, 0x0c, 0x00, 0x0b, 0x00, 0x04, 0x00, 0x0e, 0x00, 0x00, 0x00,
  0x18, 0x00, 0x00, 0x00, 0x00, 0x00, 0x00, 0x08, 0x18, 0x00, 0x00, 0x00,
  0x1c, 0x00, 0x00, 0x00, 0x00, 0x00, 0x06, 0x00, 0x08, 0x00, 0x07, 0x00,
  0x06, 0x00, 0x00, 0x00, 0x00, 0x00, 0x00, 0x01, 0x01, 0x00, 0x00, 0x00,
  0x09, 0x00, 0x00, 0x00, 0x03, 0x00, 0x00, 0x00, 0x00, 0x00, 0x00, 0x00,
  0x08, 0x00, 0x00, 0x00, 0x07, 0x00, 0x00, 0x00, 0x01, 0x00, 0x00, 0x00,
  0x0d, 0x00, 0x00, 0x00, 0x01, 0x00, 0x00, 0x00, 0x00, 0x00, 0x00, 0x00,
  0x0e, 0x00, 0x00, 0x00, 0x24, 0x0e, 0x00, 0x00, 0x94, 0x0d, 0x00, 0x00,
  0x00, 0x0d, 0x00, 0x00, 0xec, 0x0b, 0x00, 0x00, 0xd0, 0x0a, 0x00, 0x00,
  0xfc, 0x08, 0x00, 0x00, 0x20, 0x07, 0x00, 0x00, 0x4c, 0x05, 0x00, 0x00,
  0x70, 0x03, 0x00, 0x00, 0xac, 0x02, 0x00, 0x00, 0xe8, 0x01, 0x00, 0x00,
  0x24, 0x01, 0x00, 0x00, 0x80, 0x00, 0x00, 0x00, 0x04, 0x00, 0x00, 0x00,
  0x2a, 0xf2, 0xff, 0xff, 0x00, 0x00, 0x00, 0x01, 0x18, 0x00, 0x00, 0x00,
  0x20, 0x00, 0x00, 0x00, 0x3c, 0x00, 0x00, 0x00, 0x0e, 0x00, 0x00, 0x00,
  0x00, 0x00, 0x00, 0x09, 0x50, 0x00, 0x00, 0x00, 0x02, 0x00, 0x00, 0x00,
  0xff, 0xff, 0xff, 0xff, 0x03, 0x00, 0x00, 0x00, 0x14, 0xf2, 0xff, 0xff,
  0x08, 0x00, 0x00, 0x00, 0x10, 0x00, 0x00, 0x00, 0x01, 0x00, 0x00, 0x00,
  0x80, 0xff, 0xff, 0xff, 0xff, 0xff, 0xff, 0xff, 0x01, 0x00, 0x00, 0x00,
  0x00, 0x00, 0x80, 0x3b, 0x1b, 0x00, 0x00, 0x00, 0x53, 0x74, 0x61, 0x74,
  0x65, 0x66, 0x75, 0x6c, 0x50, 0x61, 0x72, 0x74, 0x69, 0x74, 0x69, 0x6f,
  0x6e, 0x65, 0x64, 0x43, 0x61, 0x6c, 0x6c, 0x5f, 0x31, 0x3a, 0x30, 0x00,
  0x02, 0x00, 0x00, 0x00, 0x01, 0x00, 0x00, 0x00, 0x03, 0x00, 0x00, 0x00,
  0xa2, 0xf2, 0xff, 0xff, 0x00, 0x00, 0x00, 0x01, 0x18, 0x00, 0x00, 0x00,
  0x20, 0x00, 0x00, 0x00, 0x3c, 0x00, 0x00, 0x00, 0x0d, 0x00, 0x00, 0x00,
  0x00, 0x00, 0x00, 0x09, 0x78, 0x00, 0x00, 0x00, 0x02, 0x00, 0x00, 0x00,
  0xff, 0xff, 0xff, 0xff, 0x03, 0x00, 0x00, 0x00, 0x8c, 0xf2, 0xff, 0xff,
  0x08, 0x00, 0x00, 0x00, 0x10, 0x00, 0x00, 0x00, 0x01, 0x00, 0x00, 0x00,
  0x1d, 0x00, 0x00, 0x00, 0x00, 0x00, 0x00, 0x00, 0x01, 0x00, 0x00, 0x00,
  0x60, 0x26, 0x1d, 0x3d, 0x42, 0x00, 0x00, 0x00, 0x73, 0x65, 0x71, 0x75,
  0x65, 0x6e, 0x74, 0x69, 0x61, 0x6c, 0x5f, 0x37, 0x5f, 0x31, 0x2f, 0x64,
  0x65, 0x6e, 0x73, 0x65, 0x5f, 0x32, 0x37, 0x5f, 0x31, 0x2f, 0x4d, 0x61,
  0x74, 0x4d, 0x75, 0x6c, 0x3b, 0x73, 0x65, 0x71, 0x75, 0x65, 0x6e, 0x74,
  0x69, 0x61, 0x6c, 0x5f, 0x37, 0x5f, 0x31, 0x2f, 0x64, 0x65, 0x6e, 0x73,
  0x65, 0x5f, 0x32, 0x37, 0x5f, 0x31, 0x2f, 0x42, 0x69, 0x61, 0x73, 0x41,
  0x64, 0x64, 0x00, 0x00, 0x02, 0x00, 0x00, 0x00, 0x01, 0x00, 0x00, 0x00,
  0x03, 0x00, 0x00, 0x00, 0x42, 0xf3, 0xff, 0xff, 0x00, 0x00, 0x00, 0x01,
  0x18, 0x00, 0x00, 0x00, 0x20, 0x00, 0x00, 0x00, 0x3c, 0x00, 0x00, 0x00,
  0x0c, 0x00, 0x00, 0x00, 0x00, 0x00, 0x00, 0x09, 0x98, 0x00, 0x00, 0x00,
  0x02, 0x00, 0x00, 0x00, 0xff, 0xff, 0xff, 0xff, 0x10, 0x00, 0x00, 0x00,
  0x2c, 0xf3, 0xff, 0xff, 0x08, 0x00, 0x00, 0x00, 0x10, 0x00, 0x00, 0x00,
  0x01, 0x00, 0x00, 0x00, 0x80, 0xff, 0xff, 0xff, 0xff, 0xff, 0xff, 0xff,
  0x01, 0x00, 0x00, 0x00, 0x19, 0x71, 0x72, 0x3c, 0x61, 0x00, 0x00, 0x00,
  0x73, 0x65, 0x71, 0x75, 0x65, 0x6e, 0x74, 0x69, 0x61, 0x6c, 0x5f, 0x37,
  0x5f, 0x31, 0x2f, 0x64, 0x65, 0x6e, 0x73, 0x65, 0x5f, 0x32, 0x36, 0x5f,
  0x31, 0x2f, 0x4d, 0x61, 0x74, 0x4d, 0x75, 0x6c, 0x3b, 0x73, 0x65, 0x71,
  0x75, 0x65, 0x6e, 0x74, 0x69, 0x61, 0x6c, 0x5f, 0x37, 0x5f, 0x31, 0x2f,
  0x64, 0x65, 0x6e, 0x73, 0x65, 0x5f, 0x32, 0x36, 0x5f, 0x31, 0x2f, 0x52,
  0x65, 0x6c, 0x75, 0x3b, 0x73, 0x65, 0x71, 0x75, 0x65, 0x6e, 0x74, 0x69,
  0x61, 0x6c, 0x5f, 0x37, 0x5f, 0x31, 0x2f, 0x64, 0x65, 0x6e, 0x73, 0x65,
  0x5f, 0x32, 0x36, 0x5f, 0x31, 0x2f, 0x42, 0x69, 0x61, 0x73, 0x41, 0x64,
  0x64, 0x00, 0x00, 0x00, 0x02, 0x00, 0x00, 0x00, 0x01, 0x00, 0x00, 0x00,
  0x10, 0x00, 0x00, 0x00, 0x02, 0xf4, 0xff, 0xff, 0x00, 0x00, 0x00, 0x01,
  0x18, 0x00, 0x00, 0x00, 0x20, 0x00, 0x00, 0x00, 0x3c, 0x00, 0x00, 0x00,
  0x0b, 0x00, 0x00, 0x00, 0x00, 0x00, 0x00, 0x09, 0x98, 0x00, 0x00, 0x00,
  0x02, 0x00, 0x00, 0x00, 0xff, 0xff, 0xff, 0xff, 0x20, 0x00, 0x00, 0x00,
  0xec, 0xf3, 0xff, 0xff, 0x08, 0x00, 0x00, 0x00, 0x10, 0x00, 0x00, 0x00,
  0x01, 0x00, 0x00, 0x00, 0x80, 0xff, 0xff, 0xff, 0xff, 0xff, 0xff, 0xff,
  0x01, 0x00, 0x00, 0x00, 0xc0, 0x70, 0xe9, 0x3b, 0x61, 0x00, 0x00, 0x00,
  0x73, 0x65, 0x71, 0x75, 0x65, 0x6e, 0x74, 0x69, 0x61, 0x6c, 0x5f, 0x37,
  0x5f, 0x31, 0x2f, 0x64, 0x65, 0x6e, 0x73, 0x65, 0x5f, 0x32, 0x35, 0x5f,
  0x31, 0x2f, 0x4d, 0x61, 0x74, 0x4d, 0x75, 0x6c, 0x3b, 0x73, 0x65, 0x71,
  0x75, 0x65, 0x6e, 0x74, 0x69, 0x61, 0x6c, 0x5f, 0x37, 0x5f, 0x31, 0x2f,
  0x64, 0x65, 0x6e, 0x73, 0x65, 0x5f, 0x32, 0x35, 0x5f, 0x31, 0x2f, 0x52,
  0x65, 0x6c, 0x75, 0x3b, 0x73, 0x65, 0x71, 0x75, 0x65, 0x6e, 0x74, 0x69,
  0x61, 0x6c, 0x5f, 0x37, 0x5f, 0x31, 0x2f, 0x64, 0x65, 0x6e, 0x73, 0x65,
  0x5f, 0x32, 0x35, 0x5f, 0x31, 0x2f, 0x42, 0x69, 0x61, 0x73, 0x41, 0x64,
  0x64, 0x00, 0x00, 0x00, 0x02, 0x00, 0x00, 0x00, 0x01, 0x00, 0x00, 0x00,
  0x20, 0x00, 0x00, 0x00, 0xc2, 0xf4, 0xff, 0xff, 0x00, 0x00, 0x00, 0x01,
  0x18, 0x00, 0x00, 0x00, 0x20, 0x00, 0x00, 0x00, 0x3c, 0x00, 0x00, 0x00,
  0x0a, 0x00, 0x00, 0x00, 0x00, 0x00, 0x00, 0x09, 0x98, 0x00, 0x00, 0x00,
  0x02, 0x00, 0x00, 0x00, 0xff, 0xff, 0xff, 0xff, 0x20, 0x00, 0x00, 0x00,
  0xac, 0xf4, 0xff, 0xff, 0x08, 0x00, 0x00, 0x00, 0x10, 0x00, 0x00, 0x00,
  0x01, 0x00, 0x00, 0x00, 0x80, 0xff, 0xff, 0xff, 0xff, 0xff, 0xff, 0xff,
  0x01, 0x00, 0x00, 0x00, 0xba, 0x52, 0xd7, 0x3b, 0x61, 0x00, 0x00, 0x00,
  0x73, 0x65, 0x71, 0x75, 0x65, 0x6e, 0x74, 0x69, 0x61, 0x6c, 0x5f, 0x37,
  0x5f, 0x31, 0x2f, 0x64, 0x65, 0x6e, 0x73, 0x65, 0x5f, 0x32, 0x34, 0x5f,
  0x31, 0x2f, 0x4d, 0x61, 0x74, 0x4d, 0x75, 0x6c, 0x3b, 0x73, 0x65, 0x71,
  0x75, 0x65, 0x6e, 0x74, 0x69, 0x61, 0x6c, 0x5f, 0x37, 0x5f, 0x31, 0x2f,
  0x64, 0x65, 0x6e, 0x73, 0x65, 0x5f, 0x32, 0x34, 0x5f, 0x31, 0x2f, 0x52,
  0x65, 0x6c, 0x75, 0x3b, 0x73, 0x65, 0x71, 0x75, 0x65, 0x6e, 0x74, 0x69,
  0x61, 0x6c, 0x5f, 0x37, 0x5f, 0x31, 0x2f, 0x64, 0x65, 0x6e, 0x73, 0x65,
  0x5f, 0x32, 0x34, 0x5f, 0x31, 0x2f, 0x42, 0x69, 0x61, 0x73, 0x41, 0x64,
  0x64, 0x00, 0x00, 0x00, 0x02, 0x00, 0x00, 0x00, 0x01, 0x00, 0x00, 0x00,
  0x20, 0x00, 0x00, 0x00, 0x0e, 0xf6, 0xff, 0xff, 0x00, 0x00, 0x00, 0x01,
  0x14, 0x00, 0x00, 0x00, 0xa8, 0x01, 0x00, 0x00, 0x09, 0x00, 0x00, 0x00,
  0x00, 0x00, 0x00, 0x09, 0xb4, 0x01, 0x00, 0x00, 0x5c, 0xf5, 0xff, 0xff,
  0x08, 0x00, 0x00, 0x00, 0x0c, 0x01, 0x00, 0x00, 0x20, 0x00, 0x00, 0x00,
  0x00, 0x00, 0x00, 0x00, 0x00, 0x00, 0x00, 0x00, 0x00, 0x00, 0x00, 0x00,
  0x00, 0x00, 0x00, 0x00, 0x00, 0x00, 0x00, 0x00, 0x00, 0x00, 0x00, 0x00,
  0x00, 0x00, 0x00, 0x00, 0x00, 0x00, 0x00, 0x00, 0x00, 0x00, 0x00, 0x00,
  0x00, 0x00, 0x00, 0x00, 0x00, 0x00, 0x00, 0x00, 0x00, 0x00, 0x00, 0x00,
  0x00, 0x00, 0x00, 0x00, 0x00, 0x00, 0x00, 0x00, 0x00, 0x00, 0x00, 0x00,
  0x00, 0x00, 0x00, 0x00, 0x00, 0x00, 0x00, 0x00, 0x00, 0x00, 0x00, 0x00,
  0x00, 0x00, 0x00, 0x00, 0x00, 0x00, 0x00, 0x00, 0x00, 0x00, 0x00, 0x00,
  0x00, 0x00, 0x00, 0x00, 0x00, 0x00, 0x00, 0x00, 0x00, 0x00, 0x00, 0x00,
  0x00, 0x00, 0x00, 0x00, 0x00, 0x00, 0x00, 0x00, 0x00, 0x00, 0x00, 0x00,
  0x00, 0x00, 0x00, 0x00, 0x00, 0x00, 0x00, 0x00, 0x00, 0x00, 0x00, 0x00,
  0x00, 0x00, 0x00, 0x00, 0x00, 0x00, 0x00, 0x00, 0x00, 0x00, 0x00, 0x00,
  0x00, 0x00, 0x00, 0x00, 0x00, 0x00, 0x00, 0x00, 0x00, 0x00, 0x00, 0x00,
  0x00, 0x00, 0x00, 0x00, 0x00, 0x00, 0x00, 0x00, 0x00, 0x00, 0x00, 0x00,
  0x00, 0x00, 0x00, 0x00, 0x00, 0x00, 0x00, 0x00, 0x00, 0x00, 0x00, 0x00,
  0x00, 0x00, 0x00, 0x00, 0x00, 0x00, 0x00, 0x00, 0x00, 0x00, 0x00, 0x00,
  0x00, 0x00, 0x00, 0x00, 0x00, 0x00, 0x00, 0x00, 0x00, 0x00, 0x00, 0x00,
  0x00, 0x00, 0x00, 0x00, 0x00, 0x00, 0x00, 0x00, 0x00, 0x00, 0x00, 0x00,
  0x00, 0x00, 0x00, 0x00, 0x00, 0x00, 0x00, 0x00, 0x00, 0x00, 0x00, 0x00,
  0x00, 0x00, 0x00, 0x00, 0x00, 0x00, 0x00, 0x00, 0x00, 0x00, 0x00, 0x00,
  0x00, 0x00, 0x00, 0x00, 0x00, 0x00, 0x00, 0x00, 0x00, 0x00, 0x00, 0x00,
  0x00, 0x00, 0x00, 0x00, 0x00, 0x00, 0x00, 0x00, 0x00, 0x00, 0x00, 0x00,
  0x00, 0x00, 0x00, 0x00, 0x00, 0x00, 0x00, 0x00, 0x20, 0x00, 0x00, 0x00,
  0x98, 0x56, 0x39, 0x3b, 0x83, 0x22, 0x3b, 0x3b, 0x8b, 0xda, 0x4d, 0x3b,
  0x7e, 0x64, 0x44, 0x3b, 0xb2, 0x3a, 0x38, 0x3b, 0x44, 0x1e, 0x52, 0x3b,
  0xc7, 0x75, 0x97, 0x3b, 0x3f, 0x23, 0x62, 0x3b, 0x39, 0x62, 0x65, 0x3b,
  0x17, 0x63, 0x3e, 0x3b, 0xfd, 0xb8, 0x64, 0x3b, 0x50, 0x1e, 0x53, 0x3b,
  0xcf, 0x17, 0x7a, 0x3b, 0xd8, 0xa3, 0x8d, 0x3b, 0x18, 0x30, 0x74, 0x3b,
  0xa9, 0x41, 0x49, 0x3b, 0xa4, 0x83, 0x4b, 0x3b, 0x84, 0x41, 0xaa, 0x3b,
  0x04, 0x0a, 0x46, 0x3b, 0x92, 0x96, 0x4e, 0x3b, 0xf1, 0xe7, 0x8d, 0x3b,
  0x5c, 0x2b, 0x5a, 0x3b, 0x1c, 0xf4, 0x49, 0x3b, 0x45, 0xaa, 0x56, 0x3b,
  0xb0, 0xd4, 0x96, 0x3b, 0x2c, 0x79, 0x67, 0x3b, 0x5d, 0xdf, 0x0f, 0x3b,
  0x12, 0x6d, 0x8e, 0x3b, 0x1e, 0x47, 0x8d, 0x3b, 0x3e, 0x16, 0x70, 0x3b,
  0xfc, 0xba, 0x42, 0x3b, 0xc2, 0x6f, 0x5a, 0x3b, 0x12, 0x00, 0x00, 0x00,
  0x74, 0x66, 0x6c, 0x2e, 0x70, 0x73, 0x65, 0x75, 0x64, 0x6f, 0x5f, 0x71,
  0x63, 0x6f, 0x6e, 0x73, 0x74, 0x37, 0x00, 0x00, 0x02, 0x00, 0x00, 0x00,
  0x20, 0x00, 0x00, 0x00, 0x07, 0x00, 0x00, 0x00, 0xe6, 0xf7, 0xff, 0xff,
  0x00, 0x00, 0x00, 0x01, 0x14, 0x00, 0x00, 0x00, 0xa4, 0x01, 0x00, 0x00,
  0x08, 0x00, 0x00, 0x00, 0x00, 0x00, 0x00, 0x02, 0xb0, 0x01, 0x00, 0x00,
  0x34, 0xf7, 0xff, 0xff, 0x08, 0x00, 0x00, 0x00, 0x08, 0x01, 0x00, 0x00,
  0x20, 0x00, 0x00, 0x00, 0x00, 0x00, 0x00, 0x00, 0x00, 0x00, 0x00, 0x00,
  0x00, 0x00, 0x00, 0x00, 0x00, 0x00, 0x00, 0x00, 0x00, 0x00, 0x00, 0x00,
  0x00, 0x00, 0x00, 0x00, 0x00, 0x00, 0x00, 0x00, 0x00, 0x00, 0x00, 0x00,
  0x00, 0x00, 0x00, 0x00, 0x00, 0x00, 0x00, 0x00, 0x00, 0x00, 0x00, 0x00,
  0x00, 0x00, 0x00, 0x00, 0x00, 0x00, 0x00, 0x00, 0x00, 0x00, 0x00, 0x00,
  0x00, 0x00, 0x00, 0x00, 0x00, 0x00, 0x00, 0x00, 0x00, 0x00, 0x00, 0x00,
  0x00, 0x00, 0x00, 0x00, 0x00, 0x00, 0x00, 0x00, 0x00, 0x00, 0x00, 0x00,
  0x00, 0x00, 0x00, 0x00, 0x00, 0x00, 0x00, 0x00, 0x00, 0x00, 0x00, 0x00,
  0x00, 0x00, 0x00, 0x00, 0x00, 0x00, 0x00, 0x00, 0x00, 0x00, 0x00, 0x00,
  0x00, 0x00, 0x00, 0x00, 0x00, 0x00, 0x00, 0x00, 0x00, 0x00, 0x00, 0x00,
  0x00, 0x00, 0x00, 0x00, 0x00, 0x00, 0x00, 0x00, 0x00, 0x00, 0x00, 0x00,
  0x00, 0x00, 0x00, 0x00, 0x00, 0x00, 0x00, 0x00, 0x00, 0x00, 0x00, 0x00,
  0x00, 0x00, 0x00, 0x00, 0x00, 0x00, 0x00, 0x00, 0x00, 0x00, 0x00, 0x00,
  0x00, 0x00, 0x00, 0x00, 0x00, 0x00, 0x00, 0x00, 0x00, 0x00, 0x00, 0x00,
  0x00, 0x00, 0x00, 0x00, 0x00, 0x00, 0x00, 0x00, 0x00, 0x00, 0x00, 0x00,
  0x00, 0x00, 0x00, 0x00, 0x00, 0x00, 0x00, 0x00, 0x00, 0x00, 0x00, 0x00,
  0x00, 0x00, 0x00, 0x00, 0x00, 0x00, 0x00, 0x00, 0x00, 0x00, 0x00, 0x00,
  0x00, 0x00, 0x00, 0x00, 0x00, 0x00, 0x00, 0x00, 0x00, 0x00, 0x00, 0x00,
  0x00, 0x00, 0x00, 0x00, 0x00, 0x00, 0x00, 0x00, 0x00, 0x00, 0x00, 0x00,
  0x00, 0x00, 0x00, 0x00, 0x00, 0x00, 0x00, 0x00, 0x00, 0x00, 0x00, 0x00,
  0x00, 0x00, 0x00, 0x00, 0x00, 0x00, 0x00, 0x00, 0x00, 0x00, 0x00, 0x00,
  0x00, 0x00, 0x00, 0x00, 0x00, 0x00, 0x00, 0x00, 0x20, 0x00, 0x00, 0x00,
  0xa9, 0x10, 0x3a, 0x37, 0x62, 0xde, 0x3b, 0x37, 0x35, 0xa9, 0x4e, 0x37,
  0xa8, 0x29, 0x45, 0x37, 0xa6, 0xf3, 0x38, 0x37, 0x36, 0xf1, 0x52, 0x37,
  0xd5, 0x0d, 0x98, 0x37, 0x46, 0x06, 0x63, 0x37, 0x82, 0x48, 0x66, 0x37,
  0x3a, 0x22, 0x3f, 0x37, 0x9c, 0x9e, 0x65, 0x37, 0x43, 0xf2, 0x53, 0x37,
  0xe3, 0x12, 0x7b, 0x37, 0x0b, 0x32, 0x8e, 0x37, 0x3e, 0x25, 0x75, 0x37,
  0xb5, 0x0b, 0x4a, 0x37, 0xf5, 0x4f, 0x4c, 0x37, 0x71, 0xec, 0xaa, 0x37,
  0xd6, 0xd0, 0x46, 0x37, 0xf9, 0x65, 0x4f, 0x37, 0x68, 0x76, 0x8e, 0x37,
  0x63, 0x06, 0x5b, 0x37, 0xdc, 0xbe, 0x4a, 0x37, 0xc8, 0x81, 0x57, 0x37,
  0x1d, 0x6c, 0x97, 0x37, 0x8e, 0x61, 0x68, 0x37, 0xcd, 0x6f, 0x10, 0x37,
  0x0f, 0xfc, 0x8e, 0x37, 0xf3, 0xd4, 0x8d, 0x37, 0x46, 0x07, 0x71, 0x37,
  0x7b, 0x7e, 0x43, 0x37, 0x0e, 0x4b, 0x5b, 0x37, 0x12, 0x00, 0x00, 0x00,
  0x74, 0x66, 0x6c, 0x2e, 0x70, 0x73, 0x65, 0x75, 0x64, 0x6f, 0x5f, 0x71,
  0x63, 0x6f, 0x6e, 0x73, 0x74, 0x36, 0x00, 0x00, 0x01, 0x00, 0x00, 0x00,
  0x20, 0x00, 0x00, 0x00, 0xb6, 0xf9, 0xff, 0xff, 0x00, 0x00, 0x00, 0x01,
  0x14, 0x00, 0x00, 0x00, 0xa8, 0x01, 0x00, 0x00, 0x07, 0x00, 0x00, 0x00,
  0x00, 0x00, 0x00, 0x09, 0xb4, 0x01, 0x00, 0x00, 0x04, 0xf9, 0xff, 0xff,
  0x08, 0x00, 0x00, 0x00, 0x0c, 0x01, 0x00, 0x00, 0x20, 0x00, 0x00, 0x00,
  0x00, 0x00, 0x00, 0x00, 0x00, 0x00, 0x00, 0x00, 0x00, 0x00, 0x00, 0x00,
  0x00, 0x00, 0x00, 0x00, 0x00, 0x00, 0x00, 0x00, 0x00, 0x00, 0x00, 0x00,
  0x00, 0x00, 0x00, 0x00, 0x00, 0x00, 0x00, 0x00, 0x00, 0x00, 0x00, 0x00,
  0x00, 0x00, 0x00, 0x00, 0x00, 0x00, 0x00, 0x00, 0x00, 0x00, 0x00, 0x00,
  0x00, 0x00, 0x00, 0x00, 0x00, 0x00, 0x00, 0x00, 0x00, 0x00, 0x00, 0x00,
  0x00, 0x00, 0x00, 0x00, 0x00, 0x00, 0x00, 0x00, 0x00, 0x00, 0x00, 0x00,
  0x00, 0x00, 0x00, 0x00, 0x00, 0x00, 0x00, 0x00, 0x00, 0x00, 0x00, 0x00,
  0x00, 0x00, 0x00, 0x00, 0x00, 0x00, 0x00, 0x00, 0x00, 0x00, 0x00, 0x00,
  0x00, 0x00, 0x00, 0x00, 0x00, 0x00, 0x00, 0x00, 0x00, 0x00, 0x00, 0x00,
  0x00, 0x00, 0x00, 0x00, 0x00, 0x00, 0x00, 0x00, 0x00, 0x00, 0x00, 0x00,
  0x00, 0x00, 0x00, 0x00, 0x00, 0x00, 0x00, 0x00, 0x00, 0x00, 0x00, 0x00,
  0x00, 0x00, 0x00, 0x00, 0x00, 0x00, 0x00, 0x00, 0x00, 0x00, 0x00, 0x00,
  0x00, 0x00, 0x00, 0x00, 0x00, 0x00, 0x00, 0x00, 0x00, 0x00, 0x00, 0x00,
  0x00, 0x00, 0x00, 0x00, 0x00, 0x00, 0x00, 0x00, 0x00, 0x00, 0x00, 0x00,
  0x00, 0x00, 0x00, 0x00, 0x00, 0x00, 0x00, 0x00, 0x00, 0x00, 0x00, 0x00,
  0x00, 0x00, 0x00, 0x00, 0x00, 0x00, 0x00, 0x00, 0x00, 0x00, 0x00, 0x00,
  0x00, 0x00, 0x00, 0x00, 0x00, 0x00, 0x00, 0x00, 0x00, 0x00, 0x00, 0x00,
  0x00, 0x00, 0x00, 0x00, 0x00, 0x00, 0x00, 0x00, 0x00, 0x00, 0x00, 0x00,
  0x00, 0x00, 0x00, 0x00, 0x00, 0x00, 0x00, 0x00, 0x00, 0x00, 0x00, 0x00,
  0x00, 0x00, 0x00, 0x00, 0x00, 0x00, 0x00, 0x00, 0x00, 0x00, 0x00, 0x00,
  0x00, 0x00, 0x00, 0x00, 0x00, 0x00, 0x00, 0x00, 0x00, 0x00, 0x00, 0x00,
  0x00, 0x00, 0x00, 0x00, 0x00, 0x00, 0x00, 0x00, 0x20, 0x00, 0x00, 0x00,
  0xab, 0xb0, 0x90, 0x3b, 0xe3, 0xc8, 0x19, 0x3b, 0xd8, 0x9a, 0x7c, 0x3b,
  0xd0, 0xaa, 0xaa, 0x3b, 0xba, 0x6b, 0x1d, 0x3b, 0x61, 0x02, 0x6a, 0x3b,
  0x26, 0xf9, 0x71, 0x3b, 0x27, 0xe6, 0xcf, 0x3b, 0x62, 0x7d, 0x6d, 0x3b,
  0x79, 0x3a, 0x5b, 0x3b, 0x8b, 0x96, 0x14, 0x3b, 0x9d, 0x80, 0x2f, 0x3b,
  0xc5, 0x91, 0x9f, 0x3b, 0x01, 0xf9, 0x77, 0x3b, 0xfd, 0xb0, 0xb0, 0x3b,
  0x1c, 0xe7, 0x8e, 0x3b, 0x37, 0x93, 0x98, 0x3b, 0x16, 0x20, 0xe4, 0x3b,
  0xd5, 0x8d, 0x86, 0x3b, 0xb3, 0x1f, 0x74, 0x3b, 0x90, 0x9e, 0xb9, 0x3b,
  0xc9, 0xa0, 0x18, 0x3b, 0xa2, 0x86, 0x78, 0x3b, 0x32, 0xe8, 0xbd, 0x3b,
  0x20, 0x0d, 0x8f, 0x3b, 0xb4, 0x7d, 0xbf, 0x3b, 0xeb, 0x0f, 0x66, 0x3b,
  0x09, 0xdc, 0xa1, 0x3b, 0xe7, 0x48, 0x90, 0x3b, 0x43, 0xb0, 0x29, 0x3b,
  0xc4, 0x8d, 0x99, 0x3b, 0x73, 0x00, 0x22, 0x3b, 0x12, 0x00, 0x00, 0x00,
  0x74, 0x66, 0x6c, 0x2e, 0x70, 0x73, 0x65, 0x75, 0x64, 0x6f, 0x5f, 0x71,
  0x63, 0x6f, 0x6e, 0x73, 0x74, 0x35, 0x00, 0x00, 0x02, 0x00, 0x00, 0x00,
  0x20, 0x00, 0x00, 0x00, 0x20, 0x00, 0x00, 0x00, 0x8e, 0xfb, 0xff, 0xff,
  0x00, 0x00, 0x00, 0x01, 0x14, 0x00, 0x00, 0x00, 0xa4, 0x01, 0x00, 0x00,
  0x06, 0x00, 0x00, 0x00, 0x00, 0x00, 0x00, 0x02, 0xb0, 0x01, 0x00, 0x00,
  0xdc, 0xfa, 0xff, 0xff, 0x08, 0x00, 0x00, 0x00, 0x08, 0x01, 0x00, 0x00,
  0x20, 0x00, 0x00, 0x00, 0x00, 0x00, 0x00, 0x00, 0x00, 0x00, 0x00, 0x00,
  0x00, 0x00, 0x00, 0x00, 0x00, 0x00, 0x00, 0x00, 0x00, 0x00, 0x00, 0x00,
  0x00, 0x00, 0x00, 0x00, 0x00, 0x00, 0x00, 0x00, 0x00, 0x00, 0x00, 0x00,
  0x00, 0x00, 0x00, 0x00, 0x00, 0x00, 0x00, 0x00, 0x00, 0x00, 0x00, 0x00,
  0x00, 0x00, 0x00, 0x00, 0x00, 0x00, 0x00, 0x00, 0x00, 0x00, 0x00, 0x00,
  0x00, 0x00, 0x00, 0x00, 0x00, 0x00, 0x00, 0x00, 0x00, 0x00, 0x00, 0x00,
  0x00, 0x00, 0x00, 0x00, 0x00, 0x00, 0x00, 0x00, 0x00, 0x00, 0x00, 0x00,
  0x00, 0x00, 0x00, 0x00, 0x00, 0x00, 0x00, 0x00, 0x00, 0x00, 0x00, 0x00,
  0x00, 0x00, 0x00, 0x00, 0x00, 0x00, 0x00, 0x00, 0x00, 0x00, 0x00, 0x00,
  0x00, 0x00, 0x00, 0x00, 0x00, 0x00, 0x00, 0x00, 0x00, 0x00, 0x00, 0x00,
  0x00, 0x00, 0x00, 0x00, 0x00, 0x00, 0x00, 0x00, 0x00, 0x00, 0x00, 0x00,
  0x00, 0x00, 0x00, 0x00, 0x00, 0x00, 0x00, 0x00, 0x00, 0x00, 0x00, 0x00,
  0x00, 0x00, 0x00, 0x00, 0x00, 0x00, 0x00, 0x00, 0x00, 0x00, 0x00, 0x00,
  0x00, 0x00, 0x00, 0x00, 0x00, 0x00, 0x00, 0x00, 0x00, 0x00, 0x00, 0x00,
  0x00, 0x00, 0x00, 0x00, 0x00, 0x00, 0x00, 0x00, 0x00, 0x00, 0x00, 0x00,
  0x00, 0x00, 0x00, 0x00, 0x00, 0x00, 0x00, 0x00, 0x00, 0x00, 0x00, 0x00,
  0x00, 0x00, 0x00, 0x00, 0x00, 0x00, 0x00, 0x00, 0x00, 0x00, 0x00, 0x00,
  0x00, 0x00, 0x00, 0x00, 0x00, 0x00, 0x00, 0x00, 0x00, 0x00, 0x00, 0x00,
  0x00, 0x00, 0x00, 0x00, 0x00, 0x00, 0x00, 0x00, 0x00, 0x00, 0x00, 0x00,
  0x00, 0x00, 0x00, 0x00, 0x00, 0x00, 0x00, 0x00, 0x00, 0x00, 0x00, 0x00,
  0x00, 0x00, 0x00, 0x00, 0x00, 0x00, 0x00, 0x00, 0x00, 0x00, 0x00, 0x00,
  0x00, 0x00, 0x00, 0x00, 0x00, 0x00, 0x00, 0x00, 0x20, 0x00, 0x00, 0x00,
  0x43, 0x66, 0xf3, 0x37, 0x69, 0x59, 0x81, 0x37, 0xad, 0x77, 0xd4, 0x37,
  0x9b, 0x8c, 0x0f, 0x38, 0x58, 0x68, 0x84, 0x37, 0x9e, 0xd3, 0xc4, 0x37,
  0x71, 0x86, 0xcb, 0x37, 0x7a, 0xdd, 0x2e, 0x38, 0x0c, 0xc1, 0xc7, 0x37,
  0xf4, 0x64, 0xb8, 0x37, 0xe6, 0xf4, 0x79, 0x37, 0xbb, 0x9d, 0x93, 0x37,
  0xfd, 0x36, 0x06, 0x38, 0x42, 0x92, 0xd0, 0x37, 0xbe, 0x9d, 0x14, 0x38,
  0x8d, 0x64, 0xf0, 0x37, 0xf1, 0x54, 0x00, 0x38, 0xab, 0xe0, 0x3f, 0x38,
  0x32, 0x59, 0xe2, 0x37, 0x83, 0x55, 0xcd, 0x37, 0x27, 0x20, 0x1c, 0x38,
  0x5b, 0x60, 0x80, 0x37, 0x62, 0x09, 0xd1, 0x37, 0x60, 0xbb, 0x1f, 0x38,
  0x80, 0xa4, 0xf0, 0x37, 0x74, 0x10, 0x21, 0x38, 0xb7, 0x81, 0xc1, 0x37,
  0x1a, 0x24, 0x08, 0x38, 0xb4, 0xb7, 0xf2, 0x37, 0xde, 0xb9, 0x8e, 0x37,
  0xaf, 0x27, 0x01, 0x38, 0xba, 0x42, 0x88, 0x37, 0x12, 0x00, 0x00, 0x00,
  0x74, 0x66, 0x6c, 0x2e, 0x70, 0x73, 0x65, 0x75, 0x64, 0x6f, 0x5f, 0x71,
  0x63, 0x6f, 0x6e, 0x73, 0x74, 0x34, 0x00, 0x00, 0x01, 0x00, 0x00, 0x00,
  0x20, 0x00, 0x00, 0x00, 0x5e, 0xfd, 0xff, 0xff, 0x00, 0x00, 0x00, 0x01,
  0x14, 0x00, 0x00, 0x00, 0xe8, 0x00, 0x00, 0x00, 0x05, 0x00, 0x00, 0x00,
  0x00, 0x00, 0x00, 0x09, 0xf4, 0x00, 0x00, 0x00, 0xac, 0xfc, 0xff, 0xff,
  0x08, 0x00, 0x00, 0x00, 0x8c, 0x00, 0x00, 0x00, 0x10, 0x00, 0x00, 0x00,
  0x00, 0x00, 0x00, 0x00, 0x00, 0x00, 0x00, 0x00, 0x00, 0x00, 0x00, 0x00,
  0x00, 0x00, 0x00, 0x00, 0x00, 0x00, 0x00, 0x00, 0x00, 0x00, 0x00, 0x00,
  0x00, 0x00, 0x00, 0x00, 0x00, 0x00, 0x00, 0x00, 0x00, 0x00, 0x00, 0x00,
  0x00, 0x00, 0x00, 0x00, 0x00, 0x00, 0x00, 0x00, 0x00, 0x00, 0x00, 0x00,
  0x00, 0x00, 0x00, 0x00, 0x00, 0x00, 0x00, 0x00, 0x00, 0x00, 0x00, 0x00,
  0x00, 0x00, 0x00, 0x00, 0x00, 0x00, 0x00, 0x00, 0x00, 0x00, 0x00, 0x00,
  0x00, 0x00, 0x00, 0x00, 0x00, 0x00, 0x00, 0x00, 0x00, 0x00, 0x00, 0x00,
  0x00, 0x00, 0x00, 0x00, 0x00, 0x00, 0x00, 0x00, 0x00, 0x00, 0x00, 0x00,
  0x00, 0x00, 0x00, 0x00, 0x00, 0x00, 0x00, 0x00, 0x00, 0x00, 0x00, 0x00,
  0x00, 0x00, 0x00, 0x00, 0x00, 0x00, 0x00, 0x00, 0x00, 0x00, 0x00, 0x00,
  0x00, 0x00, 0x00, 0x00, 0x00, 0x00, 0x00, 0x00, 0x00, 0x00, 0x00, 0x00,
  0x10, 0x00, 0x00, 0x00, 0x95, 0x6b, 0xac, 0x3b, 0x3e, 0xd2, 0x46, 0x3b,
  0x99, 0xe7, 0x8e, 0x3b, 0x2f, 0x6b, 0xa7, 0x3b, 0xdb, 0x14, 0x36, 0x3b,
  0x2f, 0x2a, 0x78, 0x3b, 0x18, 0xf9, 0x2f, 0x3b, 0x37, 0x67, 0x2b, 0x3b,
  0x42, 0xbf, 0x95, 0x3b, 0x48, 0x58, 0xc1, 0x3b, 0x73, 0xfd, 0xb3, 0x3b,
  0x67, 0xa6, 0x8e, 0x3b, 0x44, 0xbd, 0x35, 0x3b, 0x3f, 0x7c, 0x91, 0x3b,
  0x6a, 0xf0, 0x32, 0x3b, 0x74, 0x3e, 0xba, 0x3b, 0x12, 0x00, 0x00, 0x00,
  0x74, 0x66, 0x6c, 0x2e, 0x70, 0x73, 0x65, 0x75, 0x64, 0x6f, 0x5f, 0x71,
  0x63, 0x6f, 0x6e, 0x73, 0x74, 0x33, 0x00, 0x00, 0x02, 0x00, 0x00, 0x00,
  0x10, 0x00, 0x00, 0x00, 0x20, 0x00, 0x00, 0x00, 0x76, 0xfe, 0xff, 0xff,
  0x00, 0x00, 0x00, 0x01, 0x14, 0x00, 0x00, 0x00, 0xe4, 0x00, 0x00, 0x00,
  0x04, 0x00, 0x00, 0x00, 0x00, 0x00, 0x00, 0x02, 0xf0, 0x00, 0x00, 0x00,
  0xc4, 0xfd, 0xff, 0xff, 0x08, 0x00, 0x00, 0x00, 0x88, 0x00, 0x00, 0x00,
  0x10, 0x00, 0x00, 0x00, 0x00, 0x00, 0x00, 0x00, 0x00, 0x00, 0x00, 0x00,
  0x00, 0x00, 0x00, 0x00, 0x00, 0x00, 0x00, 0x00, 0x00, 0x00, 0x00, 0x00,
  0x00, 0x00, 0x00, 0x00, 0x00, 0x00, 0x00, 0x00, 0x00, 0x00, 0x00, 0x00,
  0x00, 0x00, 0x00, 0x00, 0x00, 0x00, 0x00, 0x00, 0x00, 0x00, 0x00, 0x00,
  0x00, 0x00, 0x00, 0x00, 0x00, 0x00, 0x00, 0x00, 0x00, 0x00, 0x00, 0x00,
  0x00, 0x00, 0x00, 0x00, 0x00, 0x00, 0x00, 0x00, 0x00, 0x00, 0x00, 0x00,
  0x00, 0x00, 0x00, 0x00, 0x00, 0x00, 0x00, 0x00, 0x00, 0x00, 0x00, 0x00,
  0x00, 0x00, 0x00, 0x00, 0x00, 0x00, 0x00, 0x00, 0x00, 0x00, 0x00, 0x00,
  0x00, 0x00, 0x00, 0x00, 0x00, 0x00, 0x00, 0x00, 0x00, 0x00, 0x00, 0x00,
  0x00, 0x00, 0x00, 0x00, 0x00, 0x00, 0x00, 0x00, 0x00, 0x00, 0x00, 0x00,
  0x00, 0x00, 0x00, 0x00, 0x00, 0x00, 0x00, 0x00, 0x00, 0x00, 0x00, 0x00,
  0x10, 0x00, 0x00, 0x00, 0xdb, 0x39, 0x1d, 0x38, 0xec, 0x4c, 0xb5, 0x37,
  0xbb, 0x4f, 0x02, 0x38, 0x4a, 0xaa, 0x18, 0x38, 0x2d, 0x09, 0xa6, 0x37,
  0xb1, 0x4b, 0xe2, 0x37, 0x38, 0x77, 0xa0, 0x37, 0x6f, 0x4c, 0x9c, 0x37,
  0x07, 0x8d, 0x08, 0x38, 0x81, 0x4e, 0x30, 0x38, 0xf4, 0x20, 0x24, 0x38,
  0x48, 0x14, 0x02, 0x38, 0x4e, 0xb9, 0xa5, 0x37, 0x29, 0xaa, 0x04, 0x38,
  0xa0, 0x2b, 0xa3, 0x37, 0xdf, 0xd4, 0x29, 0x38, 0x12, 0x00, 0x00, 0x00,
  0x74, 0x66, 0x6c, 0x2e, 0x70, 0x73, 0x65, 0x75, 0x64, 0x6f, 0x5f, 0x71,
  0x63, 0x6f, 0x6e, 0x73, 0x74, 0x32, 0x00, 0x00, 0x01, 0x00, 0x00, 0x00,
  0x10, 0x00, 0x00, 0x00, 0x86, 0xff, 0xff, 0xff, 0x00, 0x00, 0x00, 0x01,
  0x14, 0x00, 0x00, 0x00, 0x48, 0x00, 0x00, 0x00, 0x03, 0x00, 0x00, 0x00,
  0x00, 0x00, 0x00, 0x09, 0x54, 0x00, 0x00, 0x00, 0xd4, 0xfe, 0xff, 0xff,
  0x08, 0x00, 0x00, 0x00, 0x20, 0x00, 0x00, 0x00, 0x03, 0x00, 0x00, 0x00,
  0x00, 0x00, 0x00, 0x00, 0x00, 0x00, 0x00, 0x00, 0x00, 0x00, 0x00, 0x00,
  0x00, 0x00, 0x00, 0x00, 0x00, 0x00, 0x00, 0x00, 0x00, 0x00, 0x00, 0x00,
  0x03, 0x00, 0x00, 0x00, 0x01, 0xaa, 0xf5, 0x3b, 0x44, 0xe2, 0xca, 0x3b,
  0x0d, 0xf9, 0xae, 0x3b, 0x12, 0x00, 0x00, 0x00, 0x74, 0x66, 0x6c, 0x2e,
  0x70, 0x73, 0x65, 0x75, 0x64, 0x6f, 0x5f, 0x71, 0x63, 0x6f, 0x6e, 0x73,
  0x74, 0x31, 0x00, 0x00, 0x02, 0x00, 0x00, 0x00, 0x03, 0x00, 0x00, 0x00,
  0x10, 0x00, 0x00, 0x00, 0x00, 0x00, 0x16, 0x00, 0x1c, 0x00, 0x18, 0x00,
  0x17, 0x00, 0x10, 0x00, 0x0c, 0x00, 0x08, 0x00, 0x00, 0x00, 0x00, 0x00,
  0x00, 0x00, 0x07, 0x00, 0x16, 0x00, 0x00, 0x00, 0x00, 0x00, 0x00, 0x01,
  0x14, 0x00, 0x00, 0x00, 0x48, 0x00, 0x00, 0x00, 0x02, 0x00, 0x00, 0x00,
  0x00, 0x00, 0x00, 0x02, 0x54, 0x00, 0x00, 0x00, 0x64, 0xff, 0xff, 0xff,
  0x08, 0x00, 0x00, 0x00, 0x20, 0x00, 0x00, 0x00, 0x03, 0x00, 0x00, 0x00,
  0x00, 0x00, 0x00, 0x00, 0x00, 0x00, 0x00, 0x00, 0x00, 0x00, 0x00, 0x00,
  0x00, 0x00, 0x00, 0x00, 0x00, 0x00, 0x00, 0x00, 0x00, 0x00, 0x00, 0x00,
  0x03, 0x00, 0x00, 0x00, 0x3d, 0xa7, 0xe8, 0x38, 0x86, 0x23, 0xc0, 0x38,
  0xbb, 0xb4, 0xa5, 0x38, 0x11, 0x00, 0x00, 0x00, 0x74, 0x66, 0x6c, 0x2e,
  0x70, 0x73, 0x65, 0x75, 0x64, 0x6f, 0x5f, 0x71, 0x63, 0x6f, 0x6e, 0x73,
  0x74, 0x00, 0x00, 0x00, 0x01, 0x00, 0x00, 0x00, 0x03, 0x00, 0x00, 0x00,
  0x00, 0x00, 0x16, 0x00, 0x20, 0x00, 0x1c, 0x00, 0x1b, 0x00, 0x14, 0x00,
  0x10, 0x00, 0x0c, 0x00, 0x00, 0x00, 0x00, 0x00, 0x08, 0x00, 0x07, 0x00,
  0x16, 0x00, 0x00, 0x00, 0x00, 0x00, 0x00, 0x01, 0x18, 0x00, 0x00, 0x00,
  0x2c, 0x00, 0x00, 0x00, 0x4c, 0x00, 0x00, 0x00, 0x01, 0x00, 0x00, 0x00,
  0x00, 0x00, 0x00, 0x09, 0x68, 0x00, 0x00, 0x00, 0x02, 0x00, 0x00, 0x00,
  0xff, 0xff, 0xff, 0xff, 0x07, 0x00, 0x00, 0x00, 0x0c, 0x00, 0x0c, 0x00,
  0x00, 0x00, 0x00, 0x00, 0x08, 0x00, 0x04, 0x00, 0x0c, 0x00, 0x00, 0x00,
  0x08, 0x00, 0x00, 0x00, 0x14, 0x00, 0x00, 0x00, 0x01, 0x00, 0x00, 0x00,
  0x80, 0xff, 0xff, 0xff, 0xff, 0xff, 0xff, 0xff, 0x00, 0x00, 0x00, 0x00,
  0x01, 0x00, 0x00, 0x00, 0x81, 0x80, 0x80, 0x3b, 0x21, 0x00, 0x00, 0x00,
  0x73, 0x65, 0x72, 0x76, 0x69, 0x6e, 0x67, 0x5f, 0x64, 0x65, 0x66, 0x61,
  0x75, 0x6c, 0x74, 0x5f, 0x6b, 0x65, 0x72, 0x61, 0x73, 0x5f, 0x74, 0x65,
  0x6e, 0x73, 0x6f, 0x72, 0x5f, 0x33, 0x31, 0x3a, 0x30, 0x00, 0x00, 0x00,
  0x02, 0x00, 0x00, 0x00, 0x01, 0x00, 0x00, 0x00, 0x07, 0x00, 0x00, 0x00,
  0x02, 0x00, 0x00, 0x00, 0x24, 0x00, 0x00, 0x00, 0x04, 0x00, 0x00, 0x00,
  0xf0, 0xff, 0xff, 0xff, 0x19, 0x00, 0x00, 0x00, 0x02, 0x00, 0x00, 0x00,
  0x00, 0x00, 0x00, 0x19, 0x0c, 0x00, 0x10, 0x00, 0x0f, 0x00, 0x00, 0x00,
  0x08, 0x00, 0x04, 0x00, 0x0c, 0x00, 0x00, 0x00, 0x09, 0x00, 0x00, 0x00,
  0x04, 0x00, 0x00, 0x00, 0x00, 0x00, 0x00, 0x09
};
const unsigned int pong_modelDistance_int8_tflite_len = 7016;
