#include "pong/modelAdvanced.h"
namespace pong{
    const unsigned char pong_modelAdvanced_int8_tflite[] = {
    0x1c, 0x00, 0x00, 0x00, 0x54, 0x46, 0x4c, 0x33, 0x14, 0x00, 0x20, 0x00,
    0x1c, 0x00, 0x18, 0x00, 0x14, 0x00, 0x10, 0x00, 0x0c, 0x00, 0x00, 0x00,
    0x08, 0x00, 0x04, 0x00, 0x14, 0x00, 0x00, 0x00, 0x1c, 0x00, 0x00, 0x00,
    0x98, 0x00, 0x00, 0x00, 0xf0, 0x00, 0x00, 0x00, 0x74, 0x0a, 0x00, 0x00,
    0x84, 0x0a, 0x00, 0x00, 0xdc, 0x1a, 0x00, 0x00, 0x03, 0x00, 0x00, 0x00,
    0x01, 0x00, 0x00, 0x00, 0x10, 0x00, 0x00, 0x00, 0x00, 0x00, 0x0a, 0x00,
    0x10, 0x00, 0x0c, 0x00, 0x08, 0x00, 0x04, 0x00, 0x0a, 0x00, 0x00, 0x00,
    0x0c, 0x00, 0x00, 0x00, 0x1c, 0x00, 0x00, 0x00, 0x3c, 0x00, 0x00, 0x00,
    0x0f, 0x00, 0x00, 0x00, 0x73, 0x65, 0x72, 0x76, 0x69, 0x6e, 0x67, 0x5f,
    0x64, 0x65, 0x66, 0x61, 0x75, 0x6c, 0x74, 0x00, 0x01, 0x00, 0x00, 0x00,
    0x04, 0x00, 0x00, 0x00, 0x90, 0xff, 0xff, 0xff, 0x0d, 0x00, 0x00, 0x00,
    0x04, 0x00, 0x00, 0x00, 0x08, 0x00, 0x00, 0x00, 0x6f, 0x75, 0x74, 0x70,
    0x75, 0x74, 0x5f, 0x30, 0x00, 0x00, 0x00, 0x00, 0x01, 0x00, 0x00, 0x00,
    0x04, 0x00, 0x00, 0x00, 0x6e, 0xf5, 0xff, 0xff, 0x04, 0x00, 0x00, 0x00,
    0x0e, 0x00, 0x00, 0x00, 0x6b, 0x65, 0x72, 0x61, 0x73, 0x5f, 0x74, 0x65,
    0x6e, 0x73, 0x6f, 0x72, 0x5f, 0x34, 0x00, 0x00, 0x02, 0x00, 0x00, 0x00,
    0x34, 0x00, 0x00, 0x00, 0x04, 0x00, 0x00, 0x00, 0xdc, 0xff, 0xff, 0xff,
    0x10, 0x00, 0x00, 0x00, 0x04, 0x00, 0x00, 0x00, 0x13, 0x00, 0x00, 0x00,
    0x43, 0x4f, 0x4e, 0x56, 0x45, 0x52, 0x53, 0x49, 0x4f, 0x4e, 0x5f, 0x4d,
    0x45, 0x54, 0x41, 0x44, 0x41, 0x54, 0x41, 0x00, 0x08, 0x00, 0x0c, 0x00,
    0x08, 0x00, 0x04, 0x00, 0x08, 0x00, 0x00, 0x00, 0x0f, 0x00, 0x00, 0x00,
    0x04, 0x00, 0x00, 0x00, 0x13, 0x00, 0x00, 0x00, 0x6d, 0x69, 0x6e, 0x5f,
    0x72, 0x75, 0x6e, 0x74, 0x69, 0x6d, 0x65, 0x5f, 0x76, 0x65, 0x72, 0x73,
    0x69, 0x6f, 0x6e, 0x00, 0x11, 0x00, 0x00, 0x00, 0x80, 0x09, 0x00, 0x00,
    0x78, 0x09, 0x00, 0x00, 0x5c, 0x09, 0x00, 0x00, 0x1c, 0x09, 0x00, 0x00,
    0xcc, 0x08, 0x00, 0x00, 0xbc, 0x06, 0x00, 0x00, 0x2c, 0x06, 0x00, 0x00,
    0x1c, 0x02, 0x00, 0x00, 0x8c, 0x01, 0x00, 0x00, 0xbc, 0x00, 0x00, 0x00,
    0xb4, 0x00, 0x00, 0x00, 0xac, 0x00, 0x00, 0x00, 0xa4, 0x00, 0x00, 0x00,
    0x9c, 0x00, 0x00, 0x00, 0x94, 0x00, 0x00, 0x00, 0x74, 0x00, 0x00, 0x00,
    0x04, 0x00, 0x00, 0x00, 0x2e, 0xf6, 0xff, 0xff, 0x04, 0x00, 0x00, 0x00,
    0x60, 0x00, 0x00, 0x00, 0x0c, 0x00, 0x00, 0x00, 0x08, 0x00, 0x0e, 0x00,
    0x08, 0x00, 0x04, 0x00, 0x08, 0x00, 0x00, 0x00, 0x10, 0x00, 0x00, 0x00,
    0x28, 0x00, 0x00, 0x00, 0x00, 0x00, 0x06, 0x00, 0x08, 0x00, 0x04, 0x00,
    0x06, 0x00, 0x00, 0x00, 0x04, 0x00, 0x00, 0x00, 0x01, 0x00, 0x00, 0x00,
    0xeb, 0x03, 0x00, 0x00, 0x0c, 0x00, 0x18, 0x00, 0x14, 0x00, 0x10, 0x00,
    0x0c, 0x00, 0x04, 0x00, 0x0c, 0x00, 0x00, 0x00, 0x8e, 0x8b, 0xfe, 0x8f,
    0x5c, 0x90, 0xa6, 0xce, 0x02, 0x00, 0x00, 0x00, 0x02, 0x00, 0x00, 0x00,
    0x04, 0x00, 0x00, 0x00, 0x06, 0x00, 0x00, 0x00, 0x32, 0x2e, 0x32, 0x30,
    0x2e, 0x30, 0x00, 0x00, 0x9a, 0xf6, 0xff, 0xff, 0x04, 0x00, 0x00, 0x00,
    0x10, 0x00, 0x00, 0x00, 0x31, 0x2e, 0x31, 0x34, 0x2e, 0x30, 0x00, 0x00,
    0x00, 0x00, 0x00, 0x00, 0x00, 0x00, 0x00, 0x00, 0x84, 0xf6, 0xff, 0xff,
    0x88, 0xf6, 0xff, 0xff, 0x8c, 0xf6, 0xff, 0xff, 0x90, 0xf6, 0xff, 0xff,
    0x94, 0xf6, 0xff, 0xff, 0xca, 0xf6, 0xff, 0xff, 0x04, 0x00, 0x00, 0x00,
    0xc0, 0x00, 0x00, 0x00, 0xf6, 0x7f, 0x38, 0x75, 0x9b, 0xf9, 0xa7, 0x7f,
    0x09, 0xef, 0xbb, 0x24, 0xc8, 0x9c, 0x3d, 0x00, 0x7f, 0xe2, 0xfd, 0xf5,
    0x2c, 0x07, 0x55, 0x7f, 0xfa, 0x7f, 0x33, 0x43, 0x60, 0x9e, 0xf5, 0x37,
    0x96, 0x49, 0x99, 0x7f, 0x81, 0xc6, 0xba, 0x6b, 0x0d, 0xdc, 0xb9, 0x2e,
    0x8a, 0x44, 0x42, 0x7f, 0xec, 0x2c, 0xb2, 0x99, 0xd4, 0x81, 0x19, 0x7a,
    0x7f, 0x79, 0xa2, 0x8b, 0x39, 0xfa, 0x34, 0x02, 0x22, 0x7f, 0x2a, 0xd8,
    0x7f, 0x4a, 0x21, 0x89, 0xe8, 0xbf, 0x25, 0x7f, 0xa7, 0x69, 0x2a, 0xac,
    0xfa, 0x18, 0x81, 0x04, 0x1d, 0x1e, 0xbc, 0xbe, 0x7f, 0x56, 0x7f, 0x0c,
    0x7b, 0x37, 0x6f, 0x33, 0x40, 0x82, 0x79, 0x46, 0x81, 0xf7, 0x55, 0x7f,
    0x9d, 0x41, 0xa6, 0xc8, 0xec, 0x50, 0xcc, 0x7f, 0xe2, 0x82, 0x4f, 0x27,
    0x7f, 0xf1, 0x93, 0xc8, 0x41, 0x55, 0x3a, 0xff, 0xdd, 0x81, 0x32, 0x9c,
    0x81, 0xbf, 0xc6, 0xa9, 0xf3, 0xc6, 0xb7, 0x4f, 0xfb, 0x7f, 0x15, 0xca,
    0xf3, 0x11, 0x81, 0x0f, 0xf8, 0x7f, 0x6e, 0xf6, 0xbd, 0xc9, 0x8d, 0x70,
    0x7f, 0xf3, 0x36, 0x41, 0x7f, 0x26, 0xc0, 0x2c, 0xf6, 0xb6, 0x28, 0x7f,
    0x4e, 0x64, 0x43, 0x8e, 0x81, 0x46, 0x30, 0xeb, 0xd9, 0x49, 0x45, 0x2b,
    0x37, 0x2e, 0x6b, 0x7f, 0x81, 0x77, 0x57, 0x09, 0x11, 0x40, 0x5f, 0x7f,
    0xaa, 0x3d, 0xcb, 0xc8, 0x96, 0xf7, 0xff, 0xff, 0x04, 0x00, 0x00, 0x00,
    0x80, 0x00, 0x00, 0x00, 0x96, 0xf8, 0xff, 0xff, 0x81, 0x1c, 0x00, 0x00,
    0xe7, 0x09, 0x00, 0x00, 0x50, 0x10, 0x00, 0x00, 0x68, 0x08, 0x00, 0x00,
    0xa5, 0x2f, 0x00, 0x00, 0xc8, 0x08, 0x00, 0x00, 0x00, 0x09, 0x00, 0x00,
    0xcb, 0xfc, 0xff, 0xff, 0x7f, 0xf6, 0xff, 0xff, 0x78, 0x02, 0x00, 0x00,
    0x98, 0xe4, 0xff, 0xff, 0xa1, 0xfc, 0xff, 0xff, 0x44, 0x0d, 0x00, 0x00,
    0x8b, 0x03, 0x00, 0x00, 0x43, 0xf9, 0xff, 0xff, 0x54, 0x09, 0x00, 0x00,
    0xf4, 0x28, 0x00, 0x00, 0xef, 0x0c, 0x00, 0x00, 0xd6, 0x00, 0x00, 0x00,
    0x12, 0xf2, 0xff, 0xff, 0x00, 0x00, 0x00, 0x00, 0xc4, 0x19, 0x00, 0x00,
    0xde, 0x05, 0x00, 0x00, 0xd8, 0xf7, 0xff, 0xff, 0xfc, 0xf2, 0xff, 0xff,
    0x27, 0x06, 0x00, 0x00, 0x5d, 0xea, 0xff, 0xff, 0xd1, 0x03, 0x00, 0x00,
    0x52, 0x07, 0x00, 0x00, 0x40, 0xfa, 0xff, 0xff, 0xc1, 0x18, 0x00, 0x00,
    0x22, 0xf8, 0xff, 0xff, 0x04, 0x00, 0x00, 0x00, 0x00, 0x04, 0x00, 0x00,
    0x56, 0x7c, 0x2c, 0x9c, 0x1b, 0xe9, 0x06, 0x35, 0xfb, 0xd6, 0xb0, 0x4d,
    0x44, 0x17, 0x23, 0x2b, 0xfd, 0x7f, 0x68, 0x0e, 0x44, 0x44, 0xed, 0xd1,
    0x48, 0x10, 0x49, 0xed, 0x21, 0x56, 0xf4, 0xe0, 0x14, 0xd2, 0xb9, 0x2e,
    0x33, 0x33, 0x60, 0x2b, 0x28, 0x32, 0x19, 0xfc, 0xf1, 0x0d, 0x3b, 0xd6,
    0xc8, 0x36, 0xbf, 0xd1, 0x81, 0x48, 0x3f, 0x97, 0x8e, 0xd1, 0x2a, 0x04,
    0x21, 0xd5, 0xc5, 0x23, 0x23, 0x4b, 0x61, 0x10, 0x08, 0x35, 0xd1, 0xbc,
    0x1e, 0xe3, 0xc9, 0x32, 0x13, 0x0a, 0xcb, 0xf0, 0x09, 0x3b, 0x1e, 0xe3,
    0x25, 0x22, 0xe3, 0x7f, 0x0c, 0xd5, 0x51, 0x2a, 0x12, 0x2f, 0x07, 0x08,
    0xaf, 0xce, 0xd3, 0x26, 0x23, 0x2f, 0x26, 0x4f, 0x2c, 0xc4, 0x1a, 0xb4,
    0xdc, 0xf6, 0x1f, 0x3c, 0x1b, 0xb2, 0xac, 0xae, 0x81, 0xc9, 0x57, 0x9f,
    0xcc, 0x11, 0xc0, 0x17, 0x1b, 0xff, 0xbf, 0x26, 0x16, 0x0e, 0x26, 0x22,
    0x35, 0x07, 0x14, 0xef, 0xcd, 0xd5, 0x47, 0x06, 0xae, 0x81, 0xfc, 0x1f,
    0x17, 0x23, 0x01, 0x3f, 0x60, 0x0c, 0xe5, 0xe9, 0x27, 0x0d, 0x5a, 0x2f,
    0xbd, 0xe7, 0x05, 0xf4, 0x54, 0xd8, 0xd2, 0x81, 0x9c, 0xaf, 0xd5, 0x3d,
    0x93, 0x46, 0xa7, 0xbb, 0xd0, 0xb1, 0xe8, 0xbf, 0xbb, 0xf6, 0x50, 0x40,
    0x59, 0xe3, 0xe7, 0x01, 0x04, 0x11, 0x5b, 0x2e, 0xaa, 0xbe, 0x9a, 0xf5,
    0x16, 0xd6, 0xab, 0xc9, 0xe0, 0x25, 0x5b, 0xfb, 0xf2, 0x9c, 0xc3, 0x73,
    0x0a, 0xfc, 0x83, 0x98, 0xb2, 0x5f, 0x67, 0x9a, 0xb4, 0xa1, 0xb5, 0x87,
    0x81, 0xb2, 0xdc, 0xd6, 0x11, 0xfd, 0xfa, 0x3f, 0xf5, 0x98, 0xe1, 0x6e,
    0x82, 0xa2, 0x72, 0x07, 0x36, 0xe0, 0x81, 0xab, 0x53, 0xcc, 0x8d, 0x8e,
    0xcf, 0x4e, 0xc8, 0xca, 0xd9, 0xc5, 0xff, 0xa8, 0x8f, 0x1a, 0x6e, 0x45,
    0xef, 0x06, 0x0e, 0x62, 0x81, 0xbc, 0x69, 0x8a, 0x81, 0xf5, 0xaa, 0xf6,
    0x22, 0x39, 0x43, 0xa9, 0x41, 0x34, 0x8b, 0x9f, 0x17, 0xc6, 0xfc, 0x98,
    0x85, 0x8f, 0xd9, 0xbf, 0xed, 0x33, 0xf8, 0xa0, 0xa9, 0x10, 0x13, 0xdf,
    0x94, 0xcb, 0x56, 0xad, 0x6b, 0xe7, 0xd7, 0x8a, 0x30, 0xb1, 0x89, 0x53,
    0x8c, 0xd3, 0x4d, 0xfd, 0xac, 0x81, 0x5c, 0x92, 0x39, 0xf3, 0x7f, 0xc7,
    0x18, 0x1a, 0x92, 0x44, 0xf8, 0x01, 0xd6, 0xaa, 0xc2, 0xf7, 0x01, 0x20,
    0x38, 0xb2, 0x21, 0xc8, 0xd8, 0x0e, 0x2e, 0xe3, 0x0a, 0x33, 0xe2, 0x23,
    0x7f, 0x4b, 0xf5, 0x0c, 0x52, 0x13, 0xcf, 0x49, 0xec, 0x3a, 0x05, 0x35,
    0xea, 0x22, 0xaa, 0x29, 0x31, 0xfc, 0xa1, 0x1b, 0x3b, 0x1d, 0x46, 0x16,
    0x18, 0xbe, 0x1e, 0xaf, 0x3e, 0x2c, 0x5c, 0xf7, 0x4c, 0x38, 0xa6, 0xab,
    0x92, 0xc9, 0x18, 0xec, 0xa4, 0xea, 0xd7, 0xdd, 0x81, 0x2c, 0xdc, 0xbb,
    0x53, 0x52, 0xe0, 0x03, 0x5b, 0xdf, 0xf9, 0x08, 0x26, 0xfe, 0x37, 0x38,
    0x1d, 0x83, 0x1e, 0xbe, 0xc1, 0x5a, 0x01, 0x3a, 0x46, 0xc8, 0x9a, 0x81,
    0x51, 0x0f, 0xe9, 0x24, 0x52, 0x33, 0x32, 0xd0, 0xce, 0xac, 0x0a, 0x7d,
    0x98, 0xfd, 0x21, 0xf9, 0xd3, 0x51, 0x90, 0x39, 0x40, 0x9c, 0xc1, 0x94,
    0x17, 0xd7, 0xe9, 0x81, 0x05, 0x11, 0x12, 0xac, 0xe0, 0xf0, 0x26, 0x5b,
    0xd4, 0x32, 0x88, 0xc8, 0x4a, 0x3a, 0xa6, 0xae, 0xa1, 0x5a, 0xd2, 0x90,
    0xe2, 0x89, 0x30, 0xbc, 0x6c, 0x3a, 0xc4, 0x8b, 0xcf, 0x11, 0x45, 0x06,
    0x3e, 0x81, 0x88, 0x18, 0x02, 0x3b, 0xcd, 0x1f, 0x94, 0xfe, 0x1a, 0xe7,
    0x3a, 0xf9, 0x32, 0xfd, 0x3f, 0xd4, 0xaf, 0x1b, 0x13, 0x26, 0xc8, 0x0b,
    0x1e, 0xcd, 0xdb, 0x27, 0xd9, 0xd7, 0x03, 0x48, 0x7b, 0xf3, 0xe0, 0x8a,
    0x7f, 0xee, 0xec, 0x3d, 0x22, 0xd4, 0x3d, 0xf0, 0x00, 0x1a, 0x0f, 0x2f,
    0xdf, 0xf2, 0x0c, 0x54, 0xc5, 0xf3, 0xed, 0x0d, 0xdd, 0xea, 0x2c, 0x36,
    0x90, 0x4f, 0xae, 0x81, 0xa7, 0xfd, 0x42, 0xab, 0xb3, 0x04, 0x29, 0x31,
    0x3a, 0x09, 0x2b, 0xd3, 0xd8, 0x01, 0xbc, 0x06, 0xf3, 0x33, 0x01, 0xd8,
    0xba, 0xcc, 0x10, 0xb5, 0x0b, 0x09, 0xcc, 0x1c, 0xf1, 0x3a, 0x09, 0xf5,
    0x81, 0xc7, 0xfc, 0xd5, 0xcb, 0xe1, 0x2d, 0xdc, 0x12, 0x45, 0xb0, 0x09,
    0xd7, 0xeb, 0x1a, 0xfd, 0x0c, 0x09, 0x16, 0xcb, 0x2a, 0xe2, 0xf6, 0x36,
    0x10, 0x81, 0xf0, 0x19, 0x28, 0xc7, 0x45, 0x1e, 0x48, 0x1b, 0xe3, 0xb3,
    0x08, 0x34, 0x32, 0x42, 0xdb, 0x0b, 0x0f, 0x06, 0xd7, 0x6c, 0x53, 0x50,
    0xe9, 0x19, 0xef, 0x3a, 0x4d, 0x2c, 0x4f, 0x44, 0x47, 0x8a, 0xd9, 0xca,
    0x14, 0xcf, 0x1a, 0x81, 0x06, 0xbd, 0x0e, 0xd3, 0xd9, 0xd7, 0xaa, 0xe7,
    0x3d, 0xc9, 0x53, 0xa8, 0xf9, 0xf8, 0xc4, 0xf7, 0xeb, 0xb0, 0x01, 0xd6,
    0x0e, 0xea, 0x30, 0x04, 0xe1, 0xe3, 0xf6, 0x29, 0x76, 0x34, 0x06, 0x2b,
    0x41, 0xd3, 0x01, 0x81, 0x09, 0xfa, 0xd5, 0xcb, 0xcd, 0x4e, 0xcd, 0x29,
    0x4f, 0x2a, 0x48, 0xdd, 0x2f, 0xfc, 0xdc, 0xff, 0xe2, 0x08, 0xd2, 0xd2,
    0x47, 0x73, 0xbe, 0xd2, 0xef, 0xff, 0x57, 0x1d, 0x1c, 0x42, 0x34, 0x7f,
    0x51, 0xdb, 0x0d, 0xd5, 0x40, 0x25, 0x5e, 0x4d, 0x1c, 0xb0, 0x7f, 0x45,
    0xe7, 0xb3, 0x8a, 0x0b, 0xf2, 0xf4, 0x40, 0x2e, 0xfb, 0x17, 0x2c, 0xf1,
    0x11, 0xcc, 0xce, 0xae, 0xbe, 0x1b, 0x56, 0x7a, 0x92, 0x2c, 0xc3, 0x19,
    0xda, 0x23, 0xba, 0x8e, 0x2d, 0xe2, 0x0d, 0x30, 0xd0, 0x03, 0x30, 0x41,
    0x3e, 0xd1, 0xff, 0xec, 0x52, 0x5f, 0x39, 0x1f, 0xd2, 0x20, 0x94, 0x18,
    0x81, 0x28, 0x0b, 0x14, 0x9a, 0xfb, 0x3e, 0xc0, 0xff, 0x18, 0xc2, 0xc6,
    0x3f, 0x4f, 0xcc, 0xec, 0x41, 0x27, 0xe7, 0xe3, 0x12, 0x35, 0xe9, 0x3c,
    0xc5, 0x17, 0x15, 0xde, 0xca, 0x49, 0x21, 0x54, 0x7f, 0x2f, 0xaa, 0xf9,
    0x4c, 0x05, 0x11, 0x14, 0xe9, 0x0b, 0xd3, 0x23, 0x3a, 0x31, 0x32, 0xf6,
    0x34, 0x31, 0x81, 0x64, 0x1c, 0xc3, 0xc3, 0x9f, 0x24, 0x15, 0x48, 0xdc,
    0xdf, 0xb2, 0x3e, 0x13, 0xaf, 0xda, 0xe4, 0xc7, 0x0d, 0xd1, 0x35, 0x31,
    0x57, 0x40, 0x66, 0xd7, 0x21, 0x69, 0x6a, 0x11, 0xd7, 0xed, 0xbc, 0x18,
    0xad, 0x3c, 0x19, 0xb2, 0xcb, 0x1e, 0xb9, 0xfc, 0xc5, 0x67, 0x71, 0x57,
    0x57, 0xb6, 0x29, 0x46, 0x3a, 0x39, 0xfb, 0x05, 0x7f, 0xd0, 0x5a, 0x69,
    0x28, 0xcf, 0xf4, 0x2d, 0xdd, 0xed, 0x26, 0xba, 0x34, 0x0e, 0x0d, 0x55,
    0x37, 0xcb, 0x97, 0x02, 0x0d, 0x07, 0xdc, 0x7f, 0x71, 0x13, 0x8f, 0x8b,
    0x2c, 0x1b, 0xe0, 0x51, 0xfd, 0x07, 0xde, 0xd3, 0xe9, 0xa8, 0x81, 0x31,
    0x44, 0xae, 0x12, 0x1d, 0x17, 0x44, 0x4b, 0x37, 0x1f, 0xaf, 0x3d, 0x35,
    0x44, 0x31, 0x28, 0xbd, 0xce, 0xbe, 0x20, 0xcc, 0x07, 0x19, 0x42, 0xfd,
    0xcf, 0x13, 0xd5, 0xd7, 0xfe, 0x9a, 0x99, 0x4a, 0x42, 0x27, 0x06, 0x10,
    0xea, 0x43, 0x20, 0x3f, 0x63, 0xf6, 0x28, 0x3e, 0x56, 0x05, 0x08, 0xf9,
    0xe4, 0x30, 0x48, 0x81, 0xbb, 0x2b, 0xd4, 0xed, 0x22, 0x3b, 0xe0, 0x21,
    0xc0, 0xdd, 0x0e, 0x36, 0xdc, 0x53, 0x40, 0xe2, 0x0e, 0x2f, 0x45, 0xd0,
    0x31, 0x54, 0x55, 0xc2, 0xea, 0x42, 0x81, 0xc8, 0xc5, 0x46, 0x64, 0x1a,
    0xdc, 0xd3, 0x19, 0x18, 0xcd, 0x27, 0xc6, 0xd8, 0xde, 0x8c, 0x00, 0xf3,
    0xb6, 0xc2, 0x5b, 0xff, 0x11, 0x9e, 0x81, 0x18, 0xf0, 0xb1, 0x59, 0x03,
    0x0e, 0xca, 0x62, 0x1e, 0x76, 0xea, 0x07, 0xdd, 0x22, 0x1b, 0x08, 0xf0,
    0xfa, 0xe8, 0x24, 0x77, 0x2e, 0xfc, 0xff, 0xff, 0x04, 0x00, 0x00, 0x00,
    0x80, 0x00, 0x00, 0x00, 0x58, 0xf7, 0xff, 0xff, 0xf4, 0x06, 0x00, 0x00,
    0x80, 0x09, 0x00, 0x00, 0xa2, 0x0a, 0x00, 0x00, 0x94, 0xfa, 0xff, 0xff,
    0x76, 0xf3, 0xff, 0xff, 0xa0, 0xf6, 0xff, 0xff, 0x5e, 0xf8, 0xff, 0xff,
    0x00, 0x00, 0x00, 0x00, 0x00, 0x00, 0x00, 0x00, 0xca, 0x01, 0x00, 0x00,
    0xfb, 0x0e, 0x00, 0x00, 0x3a, 0x00, 0x00, 0x00, 0x00, 0x00, 0x00, 0x00,
    0x00, 0x00, 0x00, 0x00, 0xe1, 0xfe, 0xff, 0xff, 0x2c, 0x12, 0x00, 0x00,
    0xf0, 0x11, 0x00, 0x00, 0xbb, 0xf3, 0xff, 0xff, 0x53, 0x15, 0x00, 0x00,
    0xe2, 0xff, 0xff, 0xff, 0xf8, 0x06, 0x00, 0x00, 0x19, 0xf9, 0xff, 0xff,
    0x6d, 0x05, 0x00, 0x00, 0x6d, 0xfd, 0xff, 0xff, 0xb1, 0x12, 0x00, 0x00,
    0x7f, 0x18, 0x00, 0x00, 0x5a, 0x02, 0x00, 0x00, 0xe8, 0xfa, 0xff, 0xff,
    0xea, 0x09, 0x00, 0x00, 0xdd, 0x10, 0x00, 0x00, 0xa2, 0xfc, 0xff, 0xff,
    0xba, 0xfc, 0xff, 0xff, 0x04, 0x00, 0x00, 0x00, 0x00, 0x02, 0x00, 0x00,
    0xcc, 0x18, 0x25, 0x1c, 0xf4, 0xf2, 0xee, 0x0a, 0x1c, 0x0f, 0x2d, 0x1c,
    0xc5, 0x2a, 0x06, 0xc7, 0x1a, 0x36, 0xf1, 0x32, 0x14, 0xfc, 0x7f, 0x55,
    0xcf, 0x0f, 0xfb, 0xce, 0xfd, 0x03, 0x06, 0x00, 0xf7, 0xc5, 0xc3, 0x32,
    0xa6, 0x18, 0xe1, 0xc5, 0x1b, 0x11, 0xea, 0x0f, 0xcc, 0xea, 0xdf, 0xfe,
    0x09, 0x0b, 0x26, 0x5a, 0xdf, 0x06, 0x7f, 0xe5, 0xb6, 0x44, 0x16, 0xc6,
    0xdc, 0x2e, 0x1f, 0xd7, 0xeb, 0xf1, 0xe0, 0x51, 0xb4, 0x05, 0x44, 0xcf,
    0x41, 0x13, 0xca, 0xf3, 0xfe, 0x3f, 0xec, 0x39, 0x30, 0xb4, 0xb7, 0x7b,
    0xba, 0x31, 0x7f, 0xf8, 0xf1, 0x33, 0x36, 0x9a, 0xc1, 0x07, 0x33, 0xd6,
    0xc4, 0x20, 0x27, 0x35, 0xe2, 0x00, 0x07, 0xc9, 0x07, 0x04, 0x2d, 0x69,
    0xaf, 0x14, 0xf4, 0x81, 0x6f, 0x2a, 0xad, 0x06, 0x43, 0xfb, 0x4d, 0x62,
    0x8e, 0xfd, 0xb8, 0xc7, 0xcb, 0x4d, 0x2c, 0x06, 0x0c, 0xe7, 0x32, 0xd5,
    0x2f, 0xca, 0x4e, 0xe2, 0x48, 0x23, 0x0c, 0x0a, 0xf2, 0x40, 0xb8, 0x4a,
    0xf7, 0x10, 0xde, 0xff, 0x44, 0xe9, 0x27, 0x8e, 0x7f, 0x00, 0x23, 0xe5,
    0xec, 0xca, 0xfa, 0x11, 0xaa, 0x11, 0xc8, 0x05, 0x3e, 0xe1, 0xee, 0x3d,
    0xdc, 0x0b, 0x0f, 0x3a, 0xf9, 0x1b, 0xf8, 0xda, 0x2a, 0x34, 0x3b, 0x81,
    0x5f, 0xd9, 0xf5, 0xe6, 0xfc, 0xbf, 0xac, 0x12, 0x58, 0x1a, 0x2d, 0xce,
    0x52, 0x48, 0xb0, 0x6b, 0xbf, 0xe2, 0x4f, 0xe4, 0xe2, 0x9a, 0x0e, 0xb5,
    0xaa, 0xf0, 0xbb, 0x81, 0x02, 0x97, 0x7e, 0xb6, 0xf8, 0x94, 0xab, 0xdd,
    0x5a, 0x08, 0xe5, 0x52, 0x7f, 0x54, 0x0a, 0xae, 0xec, 0x92, 0x49, 0x81,
    0xc9, 0xf5, 0x08, 0xf7, 0x2f, 0xc3, 0x5c, 0xe4, 0x46, 0x48, 0xe3, 0x6f,
    0xbf, 0xbf, 0x0e, 0x06, 0xe8, 0x24, 0x25, 0xa9, 0x79, 0x07, 0x6e, 0x8a,
    0x44, 0x3c, 0x07, 0x34, 0x0f, 0xc1, 0xe5, 0xed, 0x25, 0x45, 0x17, 0xda,
    0xb1, 0x4a, 0x0d, 0xd6, 0x27, 0xb2, 0x43, 0xb9, 0x66, 0x5b, 0xfe, 0x02,
    0xeb, 0xe1, 0xec, 0x29, 0x81, 0x1d, 0xf6, 0x38, 0x3d, 0x5e, 0xc2, 0x29,
    0x56, 0x88, 0x81, 0x18, 0xb3, 0xbd, 0xf7, 0x22, 0xb9, 0xad, 0xc3, 0x9b,
    0xd3, 0xf4, 0x27, 0xa9, 0x66, 0x37, 0xa0, 0xbb, 0x0e, 0x76, 0x0a, 0xac,
    0xf7, 0x58, 0x1c, 0xc9, 0xfd, 0xdd, 0x93, 0x2d, 0x1b, 0x26, 0xdc, 0x28,
    0xfb, 0xd8, 0x1e, 0x1d, 0xfa, 0x08, 0xdd, 0x1b, 0x12, 0xd6, 0xd8, 0xdf,
    0x20, 0x33, 0xec, 0x0a, 0xf1, 0x16, 0x7f, 0x08, 0x16, 0xfe, 0x3a, 0xca,
    0x28, 0x16, 0x34, 0xe6, 0x3e, 0x14, 0xd3, 0x17, 0x20, 0xd7, 0xe6, 0xdd,
    0xee, 0x37, 0xfe, 0x31, 0x19, 0x28, 0x1f, 0xae, 0x30, 0x3b, 0xf2, 0x81,
    0xf0, 0x26, 0xf1, 0x0f, 0xda, 0xe8, 0xc2, 0xab, 0x05, 0x15, 0xd2, 0xf5,
    0xf6, 0xbb, 0x48, 0x9d, 0x66, 0x52, 0xf5, 0x19, 0xe3, 0xfe, 0x3f, 0xd3,
    0x57, 0x42, 0xe8, 0xd5, 0xac, 0xa6, 0x76, 0xfc, 0x4e, 0x25, 0xe0, 0xed,
    0x7f, 0xe0, 0x34, 0x1f, 0xec, 0x51, 0xa5, 0xb6, 0xc9, 0x3c, 0xdd, 0x3c,
    0xe6, 0x1b, 0x0e, 0xec, 0xfc, 0x08, 0xe2, 0x3b, 0xf8, 0x1b, 0x1d, 0xb6,
    0x2a, 0x24, 0xba, 0x81, 0xdb, 0xc5, 0xc0, 0x19, 0xd5, 0x27, 0x05, 0x0a,
    0x26, 0x2c, 0x32, 0x23, 0xfe, 0x0d, 0x64, 0x50, 0xf1, 0x4b, 0xf3, 0xa9,
    0xca, 0x11, 0xde, 0xfe, 0x1f, 0xea, 0x57, 0xa7, 0xeb, 0x0f, 0x27, 0xce,
    0x3b, 0x6e, 0x04, 0x3a, 0x81, 0xa7, 0x9b, 0xd2, 0xaa, 0xd8, 0x45, 0x9d,
    0x10, 0x1b, 0xda, 0xef, 0x3f, 0xff, 0x07, 0xd4, 0xdf, 0xe1, 0xf0, 0x00,
    0xf6, 0x20, 0xd7, 0xe9, 0xfc, 0xd7, 0x15, 0x0a, 0x3f, 0xd2, 0x81, 0xa4,
    0xef, 0xf3, 0x26, 0x31, 0x0b, 0x2f, 0xbf, 0xd4, 0xc6, 0xfe, 0xff, 0xff,
    0x04, 0x00, 0x00, 0x00, 0x40, 0x00, 0x00, 0x00, 0x2e, 0x08, 0x00, 0x00,
    0x6d, 0x03, 0x00, 0x00, 0x49, 0x0b, 0x00, 0x00, 0x96, 0x04, 0x00, 0x00,
    0x72, 0x0d, 0x00, 0x00, 0x30, 0xfb, 0xff, 0xff, 0x24, 0x05, 0x00, 0x00,
    0x22, 0x05, 0x00, 0x00, 0x45, 0xff, 0xff, 0xff, 0x30, 0xfa, 0xff, 0xff,
    0x75, 0x04, 0x00, 0x00, 0x40, 0xf9, 0xff, 0xff, 0x8e, 0x03, 0x00, 0x00,
    0xd2, 0x01, 0x00, 0x00, 0xc5, 0x05, 0x00, 0x00, 0xd4, 0x00, 0x00, 0x00,
    0x12, 0xff, 0xff, 0xff, 0x04, 0x00, 0x00, 0x00, 0x30, 0x00, 0x00, 0x00,
    0x68, 0xbf, 0x81, 0x76, 0x9b, 0x3b, 0x19, 0xbc, 0xda, 0xb7, 0x2f, 0x39,
    0xc6, 0x65, 0xbc, 0xbb, 0xc5, 0xd7, 0x95, 0xae, 0xf2, 0x41, 0x36, 0x2a,
    0xb7, 0x34, 0x8c, 0x3a, 0x65, 0xd6, 0xda, 0x7f, 0x3b, 0x7f, 0x40, 0xfa,
    0x20, 0xce, 0xa3, 0x3a, 0xa7, 0xf3, 0x4e, 0xdf, 0x30, 0xa1, 0xca, 0xc0,
    0x4e, 0xff, 0xff, 0xff, 0x04, 0x00, 0x00, 0x00, 0x0c, 0x00, 0x00, 0x00,
    0x67, 0xfe, 0xff, 0xff, 0x72, 0xff, 0xff, 0xff, 0x37, 0x01, 0x00, 0x00,
    0x34, 0xff, 0xff, 0xff, 0x38, 0xff, 0xff, 0xff, 0x0f, 0x00, 0x00, 0x00,
    0x4d, 0x4c, 0x49, 0x52, 0x20, 0x43, 0x6f, 0x6e, 0x76, 0x65, 0x72, 0x74,
    0x65, 0x64, 0x2e, 0x00, 0x01, 0x00, 0x00, 0x00, 0x14, 0x00, 0x00, 0x00,
    0x00, 0x00, 0x0e, 0x00, 0x18, 0x00, 0x14, 0x00, 0x10, 0x00, 0x0c, 0x00,
    0x08, 0x00, 0x04, 0x00, 0x0e, 0x00, 0x00, 0x00, 0x14, 0x00, 0x00, 0x00,
    0x1c, 0x00, 0x00, 0x00, 0x70, 0x01, 0x00, 0x00, 0x74, 0x01, 0x00, 0x00,
    0x78, 0x01, 0x00, 0x00, 0x04, 0x00, 0x00, 0x00, 0x6d, 0x61, 0x69, 0x6e,
    0x00, 0x00, 0x00, 0x00, 0x05, 0x00, 0x00, 0x00, 0x18, 0x01, 0x00, 0x00,
    0xd0, 0x00, 0x00, 0x00, 0x88, 0x00, 0x00, 0x00, 0x50, 0x00, 0x00, 0x00,
    0x14, 0x00, 0x00, 0x00, 0x00, 0x00, 0x0e, 0x00, 0x1a, 0x00, 0x14, 0x00,
    0x10, 0x00, 0x0c, 0x00, 0x0b, 0x00, 0x04, 0x00, 0x0e, 0x00, 0x00, 0x00,
    0x1c, 0x00, 0x00, 0x00, 0x00, 0x00, 0x00, 0x09, 0x1c, 0x00, 0x00, 0x00,
    0x20, 0x00, 0x00, 0x00, 0x01, 0x00, 0x00, 0x00, 0x00, 0x00, 0x06, 0x00,
    0x08, 0x00, 0x04, 0x00, 0x06, 0x00, 0x00, 0x00, 0x00, 0x00, 0x80, 0x3f,
    0x01, 0x00, 0x00, 0x00, 0x0d, 0x00, 0x00, 0x00, 0x01, 0x00, 0x00, 0x00,
    0x0c, 0x00, 0x00, 0x00, 0x96, 0xff, 0xff, 0xff, 0x14, 0x00, 0x00, 0x00,
    0x00, 0x00, 0x00, 0x08, 0x10, 0x00, 0x00, 0x00, 0x14, 0x00, 0x00, 0x00,
    0x04, 0x00, 0x04, 0x00, 0x04, 0x00, 0x00, 0x00, 0x01, 0x00, 0x00, 0x00,
    0x0c, 0x00, 0x00, 0x00, 0x03, 0x00, 0x00, 0x00, 0x0b, 0x00, 0x00, 0x00,
    0x02, 0x00, 0x00, 0x00, 0x01, 0x00, 0x00, 0x00, 0xca, 0xff, 0xff, 0xff,
    0x10, 0x00, 0x00, 0x00, 0x00, 0x00, 0x00, 0x08, 0x10, 0x00, 0x00, 0x00,
    0x14, 0x00, 0x00, 0x00, 0x76, 0xff, 0xff, 0xff, 0x00, 0x00, 0x00, 0x01,
    0x01, 0x00, 0x00, 0x00, 0x0b, 0x00, 0x00, 0x00, 0x03, 0x00, 0x00, 0x00,
    0x0a, 0x00, 0x00, 0x00, 0x04, 0x00, 0x00, 0x00, 0x03, 0x00, 0x00, 0x00,
    0x00, 0x00, 0x0e, 0x00, 0x14, 0x00, 0x00, 0x00, 0x10, 0x00, 0x0c, 0x00,
    0x0b, 0x00, 0x04, 0x00, 0x0e, 0x00, 0x00, 0x00, 0x10, 0x00, 0x00, 0x00,
    0x00, 0x00, 0x00, 0x08, 0x10, 0x00, 0x00, 0x00, 0x14, 0x00, 0x00, 0x00,
    0xba, 0xff, 0xff, 0xff, 0x00, 0x00, 0x00, 0x01, 0x01, 0x00, 0x00, 0x00,
    0x0a, 0x00, 0x00, 0x00, 0x03, 0x00, 0x00, 0x00, 0x09, 0x00, 0x00, 0x00,
    0x06, 0x00, 0x00, 0x00, 0x05, 0x00, 0x00, 0x00, 0x00, 0x00, 0x0e, 0x00,
    0x16, 0x00, 0x00, 0x00, 0x10, 0x00, 0x0c, 0x00, 0x0b, 0x00, 0x04, 0x00,
    0x0e, 0x00, 0x00, 0x00, 0x18, 0x00, 0x00, 0x00, 0x00, 0x00, 0x00, 0x08,
    0x18, 0x00, 0x00, 0x00, 0x1c, 0x00, 0x00, 0x00, 0x00, 0x00, 0x06, 0x00,
    0x08, 0x00, 0x07, 0x00, 0x06, 0x00, 0x00, 0x00, 0x00, 0x00, 0x00, 0x01,
    0x01, 0x00, 0x00, 0x00, 0x09, 0x00, 0x00, 0x00, 0x03, 0x00, 0x00, 0x00,
    0x00, 0x00, 0x00, 0x00, 0x08, 0x00, 0x00, 0x00, 0x07, 0x00, 0x00, 0x00,
    0x01, 0x00, 0x00, 0x00, 0x0d, 0x00, 0x00, 0x00, 0x01, 0x00, 0x00, 0x00,
    0x00, 0x00, 0x00, 0x00, 0x0e, 0x00, 0x00, 0x00, 0x24, 0x0e, 0x00, 0x00,
    0x94, 0x0d, 0x00, 0x00, 0x00, 0x0d, 0x00, 0x00, 0xec, 0x0b, 0x00, 0x00,
    0xd0, 0x0a, 0x00, 0x00, 0xfc, 0x08, 0x00, 0x00, 0x20, 0x07, 0x00, 0x00,
    0x4c, 0x05, 0x00, 0x00, 0x70, 0x03, 0x00, 0x00, 0xac, 0x02, 0x00, 0x00,
    0xe8, 0x01, 0x00, 0x00, 0x24, 0x01, 0x00, 0x00, 0x80, 0x00, 0x00, 0x00,
    0x04, 0x00, 0x00, 0x00, 0x2a, 0xf2, 0xff, 0xff, 0x00, 0x00, 0x00, 0x01,
    0x18, 0x00, 0x00, 0x00, 0x20, 0x00, 0x00, 0x00, 0x3c, 0x00, 0x00, 0x00,
    0x0e, 0x00, 0x00, 0x00, 0x00, 0x00, 0x00, 0x09, 0x50, 0x00, 0x00, 0x00,
    0x02, 0x00, 0x00, 0x00, 0xff, 0xff, 0xff, 0xff, 0x03, 0x00, 0x00, 0x00,
    0x14, 0xf2, 0xff, 0xff, 0x08, 0x00, 0x00, 0x00, 0x10, 0x00, 0x00, 0x00,
    0x01, 0x00, 0x00, 0x00, 0x80, 0xff, 0xff, 0xff, 0xff, 0xff, 0xff, 0xff,
    0x01, 0x00, 0x00, 0x00, 0x00, 0x00, 0x80, 0x3b, 0x1b, 0x00, 0x00, 0x00,
    0x53, 0x74, 0x61, 0x74, 0x65, 0x66, 0x75, 0x6c, 0x50, 0x61, 0x72, 0x74,
    0x69, 0x74, 0x69, 0x6f, 0x6e, 0x65, 0x64, 0x43, 0x61, 0x6c, 0x6c, 0x5f,
    0x31, 0x3a, 0x30, 0x00, 0x02, 0x00, 0x00, 0x00, 0x01, 0x00, 0x00, 0x00,
    0x03, 0x00, 0x00, 0x00, 0xa2, 0xf2, 0xff, 0xff, 0x00, 0x00, 0x00, 0x01,
    0x18, 0x00, 0x00, 0x00, 0x20, 0x00, 0x00, 0x00, 0x3c, 0x00, 0x00, 0x00,
    0x0d, 0x00, 0x00, 0x00, 0x00, 0x00, 0x00, 0x09, 0x78, 0x00, 0x00, 0x00,
    0x02, 0x00, 0x00, 0x00, 0xff, 0xff, 0xff, 0xff, 0x03, 0x00, 0x00, 0x00,
    0x8c, 0xf2, 0xff, 0xff, 0x08, 0x00, 0x00, 0x00, 0x10, 0x00, 0x00, 0x00,
    0x01, 0x00, 0x00, 0x00, 0xf5, 0xff, 0xff, 0xff, 0xff, 0xff, 0xff, 0xff,
    0x01, 0x00, 0x00, 0x00, 0xc6, 0xb3, 0x1c, 0x3d, 0x40, 0x00, 0x00, 0x00,
    0x73, 0x65, 0x71, 0x75, 0x65, 0x6e, 0x74, 0x69, 0x61, 0x6c, 0x5f, 0x31,
    0x5f, 0x31, 0x2f, 0x64, 0x65, 0x6e, 0x73, 0x65, 0x5f, 0x36, 0x5f, 0x31,
    0x2f, 0x4d, 0x61, 0x74, 0x4d, 0x75, 0x6c, 0x3b, 0x73, 0x65, 0x71, 0x75,
    0x65, 0x6e, 0x74, 0x69, 0x61, 0x6c, 0x5f, 0x31, 0x5f, 0x31, 0x2f, 0x64,
    0x65, 0x6e, 0x73, 0x65, 0x5f, 0x36, 0x5f, 0x31, 0x2f, 0x42, 0x69, 0x61,
    0x73, 0x41, 0x64, 0x64, 0x00, 0x00, 0x00, 0x00, 0x02, 0x00, 0x00, 0x00,
    0x01, 0x00, 0x00, 0x00, 0x03, 0x00, 0x00, 0x00, 0x42, 0xf3, 0xff, 0xff,
    0x00, 0x00, 0x00, 0x01, 0x18, 0x00, 0x00, 0x00, 0x20, 0x00, 0x00, 0x00,
    0x40, 0x00, 0x00, 0x00, 0x0c, 0x00, 0x00, 0x00, 0x00, 0x00, 0x00, 0x09,
    0x98, 0x00, 0x00, 0x00, 0x02, 0x00, 0x00, 0x00, 0xff, 0xff, 0xff, 0xff,
    0x10, 0x00, 0x00, 0x00, 0x2c, 0xf3, 0xff, 0xff, 0x08, 0x00, 0x00, 0x00,
    0x14, 0x00, 0x00, 0x00, 0x01, 0x00, 0x00, 0x00, 0x80, 0xff, 0xff, 0xff,
    0xff, 0xff, 0xff, 0xff, 0x00, 0x00, 0x00, 0x00, 0x01, 0x00, 0x00, 0x00,
    0x3e, 0x69, 0x65, 0x3c, 0x5e, 0x00, 0x00, 0x00, 0x73, 0x65, 0x71, 0x75,
    0x65, 0x6e, 0x74, 0x69, 0x61, 0x6c, 0x5f, 0x31, 0x5f, 0x31, 0x2f, 0x64,
    0x65, 0x6e, 0x73, 0x65, 0x5f, 0x35, 0x5f, 0x31, 0x2f, 0x4d, 0x61, 0x74,
    0x4d, 0x75, 0x6c, 0x3b, 0x73, 0x65, 0x71, 0x75, 0x65, 0x6e, 0x74, 0x69,
    0x61, 0x6c, 0x5f, 0x31, 0x5f, 0x31, 0x2f, 0x64, 0x65, 0x6e, 0x73, 0x65,
    0x5f, 0x35, 0x5f, 0x31, 0x2f, 0x52, 0x65, 0x6c, 0x75, 0x3b, 0x73, 0x65,
    0x71, 0x75, 0x65, 0x6e, 0x74, 0x69, 0x61, 0x6c, 0x5f, 0x31, 0x5f, 0x31,
    0x2f, 0x64, 0x65, 0x6e, 0x73, 0x65, 0x5f, 0x35, 0x5f, 0x31, 0x2f, 0x42,
    0x69, 0x61, 0x73, 0x41, 0x64, 0x64, 0x00, 0x00, 0x02, 0x00, 0x00, 0x00,
    0x01, 0x00, 0x00, 0x00, 0x10, 0x00, 0x00, 0x00, 0x02, 0xf4, 0xff, 0xff,
    0x00, 0x00, 0x00, 0x01, 0x18, 0x00, 0x00, 0x00, 0x20, 0x00, 0x00, 0x00,
    0x40, 0x00, 0x00, 0x00, 0x0b, 0x00, 0x00, 0x00, 0x00, 0x00, 0x00, 0x09,
    0x98, 0x00, 0x00, 0x00, 0x02, 0x00, 0x00, 0x00, 0xff, 0xff, 0xff, 0xff,
    0x20, 0x00, 0x00, 0x00, 0xec, 0xf3, 0xff, 0xff, 0x08, 0x00, 0x00, 0x00,
    0x14, 0x00, 0x00, 0x00, 0x01, 0x00, 0x00, 0x00, 0x80, 0xff, 0xff, 0xff,
    0xff, 0xff, 0xff, 0xff, 0x00, 0x00, 0x00, 0x00, 0x01, 0x00, 0x00, 0x00,
    0xd6, 0x46, 0xe6, 0x3b, 0x5e, 0x00, 0x00, 0x00, 0x73, 0x65, 0x71, 0x75,
    0x65, 0x6e, 0x74, 0x69, 0x61, 0x6c, 0x5f, 0x31, 0x5f, 0x31, 0x2f, 0x64,
    0x65, 0x6e, 0x73, 0x65, 0x5f, 0x34, 0x5f, 0x31, 0x2f, 0x4d, 0x61, 0x74,
    0x4d, 0x75, 0x6c, 0x3b, 0x73, 0x65, 0x71, 0x75, 0x65, 0x6e, 0x74, 0x69,
    0x61, 0x6c, 0x5f, 0x31, 0x5f, 0x31, 0x2f, 0x64, 0x65, 0x6e, 0x73, 0x65,
    0x5f, 0x34, 0x5f, 0x31, 0x2f, 0x52, 0x65, 0x6c, 0x75, 0x3b, 0x73, 0x65,
    0x71, 0x75, 0x65, 0x6e, 0x74, 0x69, 0x61, 0x6c, 0x5f, 0x31, 0x5f, 0x31,
    0x2f, 0x64, 0x65, 0x6e, 0x73, 0x65, 0x5f, 0x34, 0x5f, 0x31, 0x2f, 0x42,
    0x69, 0x61, 0x73, 0x41, 0x64, 0x64, 0x00, 0x00, 0x02, 0x00, 0x00, 0x00,
    0x01, 0x00, 0x00, 0x00, 0x20, 0x00, 0x00, 0x00, 0xc2, 0xf4, 0xff, 0xff,
    0x00, 0x00, 0x00, 0x01, 0x18, 0x00, 0x00, 0x00, 0x20, 0x00, 0x00, 0x00,
    0x40, 0x00, 0x00, 0x00, 0x0a, 0x00, 0x00, 0x00, 0x00, 0x00, 0x00, 0x09,
    0x98, 0x00, 0x00, 0x00, 0x02, 0x00, 0x00, 0x00, 0xff, 0xff, 0xff, 0xff,
    0x20, 0x00, 0x00, 0x00, 0xac, 0xf4, 0xff, 0xff, 0x08, 0x00, 0x00, 0x00,
    0x14, 0x00, 0x00, 0x00, 0x01, 0x00, 0x00, 0x00, 0x80, 0xff, 0xff, 0xff,
    0xff, 0xff, 0xff, 0xff, 0x00, 0x00, 0x00, 0x00, 0x01, 0x00, 0x00, 0x00,
    0x58, 0xe5, 0xa0, 0x3b, 0x5e, 0x00, 0x00, 0x00, 0x73, 0x65, 0x71, 0x75,
    0x65, 0x6e, 0x74, 0x69, 0x61, 0x6c, 0x5f, 0x31, 0x5f, 0x31, 0x2f, 0x64,
    0x65, 0x6e, 0x73, 0x65, 0x5f, 0x33, 0x5f, 0x31, 0x2f, 0x4d, 0x61, 0x74,
    0x4d, 0x75, 0x6c, 0x3b, 0x73, 0x65, 0x71, 0x75, 0x65, 0x6e, 0x74, 0x69,
    0x61, 0x6c, 0x5f, 0x31, 0x5f, 0x31, 0x2f, 0x64, 0x65, 0x6e, 0x73, 0x65,
    0x5f, 0x33, 0x5f, 0x31, 0x2f, 0x52, 0x65, 0x6c, 0x75, 0x3b, 0x73, 0x65,
    0x71, 0x75, 0x65, 0x6e, 0x74, 0x69, 0x61, 0x6c, 0x5f, 0x31, 0x5f, 0x31,
    0x2f, 0x64, 0x65, 0x6e, 0x73, 0x65, 0x5f, 0x33, 0x5f, 0x31, 0x2f, 0x42,
    0x69, 0x61, 0x73, 0x41, 0x64, 0x64, 0x00, 0x00, 0x02, 0x00, 0x00, 0x00,
    0x01, 0x00, 0x00, 0x00, 0x20, 0x00, 0x00, 0x00, 0x0e, 0xf6, 0xff, 0xff,
    0x00, 0x00, 0x00, 0x01, 0x14, 0x00, 0x00, 0x00, 0xa8, 0x01, 0x00, 0x00,
    0x09, 0x00, 0x00, 0x00, 0x00, 0x00, 0x00, 0x09, 0xb4, 0x01, 0x00, 0x00,
    0x5c, 0xf5, 0xff, 0xff, 0x08, 0x00, 0x00, 0x00, 0x0c, 0x01, 0x00, 0x00,
    0x20, 0x00, 0x00, 0x00, 0x00, 0x00, 0x00, 0x00, 0x00, 0x00, 0x00, 0x00,
    0x00, 0x00, 0x00, 0x00, 0x00, 0x00, 0x00, 0x00, 0x00, 0x00, 0x00, 0x00,
    0x00, 0x00, 0x00, 0x00, 0x00, 0x00, 0x00, 0x00, 0x00, 0x00, 0x00, 0x00,
    0x00, 0x00, 0x00, 0x00, 0x00, 0x00, 0x00, 0x00, 0x00, 0x00, 0x00, 0x00,
    0x00, 0x00, 0x00, 0x00, 0x00, 0x00, 0x00, 0x00, 0x00, 0x00, 0x00, 0x00,
    0x00, 0x00, 0x00, 0x00, 0x00, 0x00, 0x00, 0x00, 0x00, 0x00, 0x00, 0x00,
    0x00, 0x00, 0x00, 0x00, 0x00, 0x00, 0x00, 0x00, 0x00, 0x00, 0x00, 0x00,
    0x00, 0x00, 0x00, 0x00, 0x00, 0x00, 0x00, 0x00, 0x00, 0x00, 0x00, 0x00,
    0x00, 0x00, 0x00, 0x00, 0x00, 0x00, 0x00, 0x00, 0x00, 0x00, 0x00, 0x00,
    0x00, 0x00, 0x00, 0x00, 0x00, 0x00, 0x00, 0x00, 0x00, 0x00, 0x00, 0x00,
    0x00, 0x00, 0x00, 0x00, 0x00, 0x00, 0x00, 0x00, 0x00, 0x00, 0x00, 0x00,
    0x00, 0x00, 0x00, 0x00, 0x00, 0x00, 0x00, 0x00, 0x00, 0x00, 0x00, 0x00,
    0x00, 0x00, 0x00, 0x00, 0x00, 0x00, 0x00, 0x00, 0x00, 0x00, 0x00, 0x00,
    0x00, 0x00, 0x00, 0x00, 0x00, 0x00, 0x00, 0x00, 0x00, 0x00, 0x00, 0x00,
    0x00, 0x00, 0x00, 0x00, 0x00, 0x00, 0x00, 0x00, 0x00, 0x00, 0x00, 0x00,
    0x00, 0x00, 0x00, 0x00, 0x00, 0x00, 0x00, 0x00, 0x00, 0x00, 0x00, 0x00,
    0x00, 0x00, 0x00, 0x00, 0x00, 0x00, 0x00, 0x00, 0x00, 0x00, 0x00, 0x00,
    0x00, 0x00, 0x00, 0x00, 0x00, 0x00, 0x00, 0x00, 0x00, 0x00, 0x00, 0x00,
    0x00, 0x00, 0x00, 0x00, 0x00, 0x00, 0x00, 0x00, 0x00, 0x00, 0x00, 0x00,
    0x00, 0x00, 0x00, 0x00, 0x00, 0x00, 0x00, 0x00, 0x00, 0x00, 0x00, 0x00,
    0x00, 0x00, 0x00, 0x00, 0x00, 0x00, 0x00, 0x00, 0x00, 0x00, 0x00, 0x00,
    0x00, 0x00, 0x00, 0x00, 0x00, 0x00, 0x00, 0x00, 0x00, 0x00, 0x00, 0x00,
    0x20, 0x00, 0x00, 0x00, 0xaa, 0x5d, 0x2f, 0x3b, 0xb3, 0xc4, 0x80, 0x3b,
    0xdc, 0xc7, 0x80, 0x3b, 0x17, 0xfe, 0x9f, 0x3b, 0x60, 0x1e, 0x84, 0x3b,
    0xa3, 0xfd, 0x34, 0x3b, 0x57, 0x5a, 0x1a, 0x3b, 0x01, 0x24, 0x48, 0x3b,
    0xaa, 0xa5, 0x49, 0x3b, 0xe3, 0x57, 0xe8, 0x3a, 0x9e, 0x01, 0x98, 0x3b,
    0x94, 0xf4, 0x69, 0x3b, 0xa2, 0x20, 0x5d, 0x3b, 0x26, 0x5b, 0xbf, 0x3b,
    0x9a, 0x44, 0x73, 0x3b, 0x13, 0x22, 0x4a, 0x3b, 0xcf, 0xdc, 0x83, 0x3b,
    0x5b, 0x7d, 0x33, 0x3b, 0x0d, 0x90, 0x60, 0x3b, 0x98, 0x62, 0x8c, 0x3b,
    0x54, 0x60, 0x7c, 0x3b, 0x73, 0xba, 0x2d, 0x3b, 0xb3, 0xca, 0x9e, 0x3b,
    0x7a, 0x2f, 0x05, 0x3c, 0x43, 0xde, 0x5b, 0x3b, 0x36, 0x7f, 0x10, 0x3b,
    0x4f, 0xf1, 0x68, 0x3b, 0x0e, 0x6e, 0x2f, 0x3b, 0xb8, 0x55, 0x71, 0x3b,
    0x04, 0x0b, 0x51, 0x3b, 0x1e, 0xd4, 0x70, 0x3b, 0x0f, 0x8c, 0x6b, 0x3b,
    0x12, 0x00, 0x00, 0x00, 0x74, 0x66, 0x6c, 0x2e, 0x70, 0x73, 0x65, 0x75,
    0x64, 0x6f, 0x5f, 0x71, 0x63, 0x6f, 0x6e, 0x73, 0x74, 0x37, 0x00, 0x00,
    0x02, 0x00, 0x00, 0x00, 0x20, 0x00, 0x00, 0x00, 0x06, 0x00, 0x00, 0x00,
    0xe6, 0xf7, 0xff, 0xff, 0x00, 0x00, 0x00, 0x01, 0x14, 0x00, 0x00, 0x00,
    0xa4, 0x01, 0x00, 0x00, 0x08, 0x00, 0x00, 0x00, 0x00, 0x00, 0x00, 0x02,
    0xb0, 0x01, 0x00, 0x00, 0x34, 0xf7, 0xff, 0xff, 0x08, 0x00, 0x00, 0x00,
    0x08, 0x01, 0x00, 0x00, 0x20, 0x00, 0x00, 0x00, 0x00, 0x00, 0x00, 0x00,
    0x00, 0x00, 0x00, 0x00, 0x00, 0x00, 0x00, 0x00, 0x00, 0x00, 0x00, 0x00,
    0x00, 0x00, 0x00, 0x00, 0x00, 0x00, 0x00, 0x00, 0x00, 0x00, 0x00, 0x00,
    0x00, 0x00, 0x00, 0x00, 0x00, 0x00, 0x00, 0x00, 0x00, 0x00, 0x00, 0x00,
    0x00, 0x00, 0x00, 0x00, 0x00, 0x00, 0x00, 0x00, 0x00, 0x00, 0x00, 0x00,
    0x00, 0x00, 0x00, 0x00, 0x00, 0x00, 0x00, 0x00, 0x00, 0x00, 0x00, 0x00,
    0x00, 0x00, 0x00, 0x00, 0x00, 0x00, 0x00, 0x00, 0x00, 0x00, 0x00, 0x00,
    0x00, 0x00, 0x00, 0x00, 0x00, 0x00, 0x00, 0x00, 0x00, 0x00, 0x00, 0x00,
    0x00, 0x00, 0x00, 0x00, 0x00, 0x00, 0x00, 0x00, 0x00, 0x00, 0x00, 0x00,
    0x00, 0x00, 0x00, 0x00, 0x00, 0x00, 0x00, 0x00, 0x00, 0x00, 0x00, 0x00,
    0x00, 0x00, 0x00, 0x00, 0x00, 0x00, 0x00, 0x00, 0x00, 0x00, 0x00, 0x00,
    0x00, 0x00, 0x00, 0x00, 0x00, 0x00, 0x00, 0x00, 0x00, 0x00, 0x00, 0x00,
    0x00, 0x00, 0x00, 0x00, 0x00, 0x00, 0x00, 0x00, 0x00, 0x00, 0x00, 0x00,
    0x00, 0x00, 0x00, 0x00, 0x00, 0x00, 0x00, 0x00, 0x00, 0x00, 0x00, 0x00,
    0x00, 0x00, 0x00, 0x00, 0x00, 0x00, 0x00, 0x00, 0x00, 0x00, 0x00, 0x00,
    0x00, 0x00, 0x00, 0x00, 0x00, 0x00, 0x00, 0x00, 0x00, 0x00, 0x00, 0x00,
    0x00, 0x00, 0x00, 0x00, 0x00, 0x00, 0x00, 0x00, 0x00, 0x00, 0x00, 0x00,
    0x00, 0x00, 0x00, 0x00, 0x00, 0x00, 0x00, 0x00, 0x00, 0x00, 0x00, 0x00,
    0x00, 0x00, 0x00, 0x00, 0x00, 0x00, 0x00, 0x00, 0x00, 0x00, 0x00, 0x00,
    0x00, 0x00, 0x00, 0x00, 0x00, 0x00, 0x00, 0x00, 0x00, 0x00, 0x00, 0x00,
    0x00, 0x00, 0x00, 0x00, 0x00, 0x00, 0x00, 0x00, 0x00, 0x00, 0x00, 0x00,
    0x00, 0x00, 0x00, 0x00, 0x00, 0x00, 0x00, 0x00, 0x00, 0x00, 0x00, 0x00,
    0x20, 0x00, 0x00, 0x00, 0xb8, 0x0d, 0x30, 0x37, 0xf9, 0x45, 0x81, 0x37,
    0x26, 0x49, 0x81, 0x37, 0xb6, 0x9e, 0xa0, 0x37, 0x04, 0xa3, 0x84, 0x37,
    0x57, 0xb3, 0x35, 0x37, 0x4d, 0xf5, 0x1a, 0x37, 0xef, 0xec, 0x48, 0x37,
    0x1b, 0x70, 0x4a, 0x37, 0x25, 0x41, 0xe9, 0x36, 0x39, 0x9a, 0x98, 0x37,
    0x74, 0xdf, 0x6a, 0x37, 0xa1, 0xfe, 0x5d, 0x37, 0x42, 0x1b, 0xc0, 0x37,
    0xd4, 0x38, 0x74, 0x37, 0x01, 0xed, 0x4a, 0x37, 0x31, 0x61, 0x84, 0x37,
    0x8d, 0x31, 0x34, 0x37, 0x7f, 0x71, 0x61, 0x37, 0x88, 0xef, 0x8c, 0x37,
    0xb3, 0x5d, 0x7d, 0x37, 0xdd, 0x68, 0x2e, 0x37, 0x1e, 0x6a, 0x9f, 0x37,
    0x30, 0xb5, 0x05, 0x38, 0xff, 0xba, 0x5c, 0x37, 0x47, 0x10, 0x11, 0x37,
    0x2b, 0xdb, 0x69, 0x37, 0x2d, 0x1e, 0x30, 0x37, 0x01, 0x48, 0x72, 0x37,
    0xe2, 0xdc, 0x51, 0x37, 0xe5, 0xc5, 0x71, 0x37, 0x88, 0x78, 0x6c, 0x37,
    0x12, 0x00, 0x00, 0x00, 0x74, 0x66, 0x6c, 0x2e, 0x70, 0x73, 0x65, 0x75,
    0x64, 0x6f, 0x5f, 0x71, 0x63, 0x6f, 0x6e, 0x73, 0x74, 0x36, 0x00, 0x00,
    0x01, 0x00, 0x00, 0x00, 0x20, 0x00, 0x00, 0x00, 0xb6, 0xf9, 0xff, 0xff,
    0x00, 0x00, 0x00, 0x01, 0x14, 0x00, 0x00, 0x00, 0xa8, 0x01, 0x00, 0x00,
    0x07, 0x00, 0x00, 0x00, 0x00, 0x00, 0x00, 0x09, 0xb4, 0x01, 0x00, 0x00,
    0x04, 0xf9, 0xff, 0xff, 0x08, 0x00, 0x00, 0x00, 0x0c, 0x01, 0x00, 0x00,
    0x20, 0x00, 0x00, 0x00, 0x00, 0x00, 0x00, 0x00, 0x00, 0x00, 0x00, 0x00,
    0x00, 0x00, 0x00, 0x00, 0x00, 0x00, 0x00, 0x00, 0x00, 0x00, 0x00, 0x00,
    0x00, 0x00, 0x00, 0x00, 0x00, 0x00, 0x00, 0x00, 0x00, 0x00, 0x00, 0x00,
    0x00, 0x00, 0x00, 0x00, 0x00, 0x00, 0x00, 0x00, 0x00, 0x00, 0x00, 0x00,
    0x00, 0x00, 0x00, 0x00, 0x00, 0x00, 0x00, 0x00, 0x00, 0x00, 0x00, 0x00,
    0x00, 0x00, 0x00, 0x00, 0x00, 0x00, 0x00, 0x00, 0x00, 0x00, 0x00, 0x00,
    0x00, 0x00, 0x00, 0x00, 0x00, 0x00, 0x00, 0x00, 0x00, 0x00, 0x00, 0x00,
    0x00, 0x00, 0x00, 0x00, 0x00, 0x00, 0x00, 0x00, 0x00, 0x00, 0x00, 0x00,
    0x00, 0x00, 0x00, 0x00, 0x00, 0x00, 0x00, 0x00, 0x00, 0x00, 0x00, 0x00,
    0x00, 0x00, 0x00, 0x00, 0x00, 0x00, 0x00, 0x00, 0x00, 0x00, 0x00, 0x00,
    0x00, 0x00, 0x00, 0x00, 0x00, 0x00, 0x00, 0x00, 0x00, 0x00, 0x00, 0x00,
    0x00, 0x00, 0x00, 0x00, 0x00, 0x00, 0x00, 0x00, 0x00, 0x00, 0x00, 0x00,
    0x00, 0x00, 0x00, 0x00, 0x00, 0x00, 0x00, 0x00, 0x00, 0x00, 0x00, 0x00,
    0x00, 0x00, 0x00, 0x00, 0x00, 0x00, 0x00, 0x00, 0x00, 0x00, 0x00, 0x00,
    0x00, 0x00, 0x00, 0x00, 0x00, 0x00, 0x00, 0x00, 0x00, 0x00, 0x00, 0x00,
    0x00, 0x00, 0x00, 0x00, 0x00, 0x00, 0x00, 0x00, 0x00, 0x00, 0x00, 0x00,
    0x00, 0x00, 0x00, 0x00, 0x00, 0x00, 0x00, 0x00, 0x00, 0x00, 0x00, 0x00,
    0x00, 0x00, 0x00, 0x00, 0x00, 0x00, 0x00, 0x00, 0x00, 0x00, 0x00, 0x00,
    0x00, 0x00, 0x00, 0x00, 0x00, 0x00, 0x00, 0x00, 0x00, 0x00, 0x00, 0x00,
    0x00, 0x00, 0x00, 0x00, 0x00, 0x00, 0x00, 0x00, 0x00, 0x00, 0x00, 0x00,
    0x00, 0x00, 0x00, 0x00, 0x00, 0x00, 0x00, 0x00, 0x00, 0x00, 0x00, 0x00,
    0x00, 0x00, 0x00, 0x00, 0x00, 0x00, 0x00, 0x00, 0x00, 0x00, 0x00, 0x00,
    0x20, 0x00, 0x00, 0x00, 0x43, 0x8a, 0x49, 0x3b, 0xca, 0x91, 0x8a, 0x3b,
    0x31, 0x89, 0xa4, 0x3b, 0x38, 0x6e, 0x95, 0x3b, 0x21, 0x66, 0x8c, 0x3b,
    0xbf, 0x24, 0x2e, 0x3b, 0x43, 0x26, 0x1d, 0x3b, 0x42, 0x08, 0x22, 0x3b,
    0x31, 0x04, 0x16, 0x3b, 0x6a, 0x8a, 0x17, 0x3b, 0x12, 0x14, 0x85, 0x3b,
    0x44, 0x95, 0x7e, 0x3b, 0xcf, 0xa3, 0x86, 0x3b, 0x61, 0xc8, 0x1d, 0x3b,
    0xeb, 0x12, 0x18, 0x3b, 0xb5, 0x9f, 0x93, 0x3b, 0x48, 0x79, 0x8d, 0x3b,
    0x94, 0xf8, 0x8a, 0x3b, 0x67, 0x29, 0xa2, 0x3b, 0x42, 0xe2, 0x7c, 0x3b,
    0x59, 0xf5, 0x91, 0x3b, 0xe1, 0x3b, 0x6f, 0x3b, 0x2b, 0x2b, 0x81, 0x3b,
    0x4b, 0xc8, 0x9b, 0x3b, 0x3c, 0xc2, 0xac, 0x3b, 0x88, 0x12, 0x62, 0x3b,
    0x47, 0xeb, 0x67, 0x3b, 0x33, 0xc1, 0x8c, 0x3b, 0x3f, 0xac, 0x88, 0x3b,
    0x27, 0xa9, 0x92, 0x3b, 0x91, 0xdc, 0x7f, 0x3b, 0xcf, 0xb1, 0x22, 0x3b,
    0x12, 0x00, 0x00, 0x00, 0x74, 0x66, 0x6c, 0x2e, 0x70, 0x73, 0x65, 0x75,
    0x64, 0x6f, 0x5f, 0x71, 0x63, 0x6f, 0x6e, 0x73, 0x74, 0x35, 0x00, 0x00,
    0x02, 0x00, 0x00, 0x00, 0x20, 0x00, 0x00, 0x00, 0x20, 0x00, 0x00, 0x00,
    0x8e, 0xfb, 0xff, 0xff, 0x00, 0x00, 0x00, 0x01, 0x14, 0x00, 0x00, 0x00,
    0xa4, 0x01, 0x00, 0x00, 0x06, 0x00, 0x00, 0x00, 0x00, 0x00, 0x00, 0x02,
    0xb0, 0x01, 0x00, 0x00, 0xdc, 0xfa, 0xff, 0xff, 0x08, 0x00, 0x00, 0x00,
    0x08, 0x01, 0x00, 0x00, 0x20, 0x00, 0x00, 0x00, 0x00, 0x00, 0x00, 0x00,
    0x00, 0x00, 0x00, 0x00, 0x00, 0x00, 0x00, 0x00, 0x00, 0x00, 0x00, 0x00,
    0x00, 0x00, 0x00, 0x00, 0x00, 0x00, 0x00, 0x00, 0x00, 0x00, 0x00, 0x00,
    0x00, 0x00, 0x00, 0x00, 0x00, 0x00, 0x00, 0x00, 0x00, 0x00, 0x00, 0x00,
    0x00, 0x00, 0x00, 0x00, 0x00, 0x00, 0x00, 0x00, 0x00, 0x00, 0x00, 0x00,
    0x00, 0x00, 0x00, 0x00, 0x00, 0x00, 0x00, 0x00, 0x00, 0x00, 0x00, 0x00,
    0x00, 0x00, 0x00, 0x00, 0x00, 0x00, 0x00, 0x00, 0x00, 0x00, 0x00, 0x00,
    0x00, 0x00, 0x00, 0x00, 0x00, 0x00, 0x00, 0x00, 0x00, 0x00, 0x00, 0x00,
    0x00, 0x00, 0x00, 0x00, 0x00, 0x00, 0x00, 0x00, 0x00, 0x00, 0x00, 0x00,
    0x00, 0x00, 0x00, 0x00, 0x00, 0x00, 0x00, 0x00, 0x00, 0x00, 0x00, 0x00,
    0x00, 0x00, 0x00, 0x00, 0x00, 0x00, 0x00, 0x00, 0x00, 0x00, 0x00, 0x00,
    0x00, 0x00, 0x00, 0x00, 0x00, 0x00, 0x00, 0x00, 0x00, 0x00, 0x00, 0x00,
    0x00, 0x00, 0x00, 0x00, 0x00, 0x00, 0x00, 0x00, 0x00, 0x00, 0x00, 0x00,
    0x00, 0x00, 0x00, 0x00, 0x00, 0x00, 0x00, 0x00, 0x00, 0x00, 0x00, 0x00,
    0x00, 0x00, 0x00, 0x00, 0x00, 0x00, 0x00, 0x00, 0x00, 0x00, 0x00, 0x00,
    0x00, 0x00, 0x00, 0x00, 0x00, 0x00, 0x00, 0x00, 0x00, 0x00, 0x00, 0x00,
    0x00, 0x00, 0x00, 0x00, 0x00, 0x00, 0x00, 0x00, 0x00, 0x00, 0x00, 0x00,
    0x00, 0x00, 0x00, 0x00, 0x00, 0x00, 0x00, 0x00, 0x00, 0x00, 0x00, 0x00,
    0x00, 0x00, 0x00, 0x00, 0x00, 0x00, 0x00, 0x00, 0x00, 0x00, 0x00, 0x00,
    0x00, 0x00, 0x00, 0x00, 0x00, 0x00, 0x00, 0x00, 0x00, 0x00, 0x00, 0x00,
    0x00, 0x00, 0x00, 0x00, 0x00, 0x00, 0x00, 0x00, 0x00, 0x00, 0x00, 0x00,
    0x00, 0x00, 0x00, 0x00, 0x00, 0x00, 0x00, 0x00, 0x00, 0x00, 0x00, 0x00,
    0x20, 0x00, 0x00, 0x00, 0xf0, 0x55, 0x7d, 0x37, 0x85, 0x2e, 0xae, 0x37,
    0x4c, 0xd2, 0xce, 0x37, 0x84, 0xd5, 0xbb, 0x37, 0x38, 0x7b, 0xb0, 0x37,
    0xf4, 0xe5, 0x5a, 0x37, 0x66, 0x89, 0x45, 0x37, 0xa5, 0xac, 0x4b, 0x37,
    0x08, 0x92, 0x3c, 0x37, 0x8a, 0x7c, 0x3e, 0x37, 0x88, 0x47, 0xa7, 0x37,
    0x5e, 0x01, 0xa0, 0x37, 0x00, 0x3e, 0xa9, 0x37, 0x2e, 0x55, 0x46, 0x37,
    0x20, 0x28, 0x3f, 0x37, 0x23, 0x90, 0xb9, 0x37, 0x16, 0xd5, 0xb1, 0x37,
    0xb9, 0xaf, 0xae, 0x37, 0x4e, 0xd6, 0xcb, 0x37, 0xf7, 0xef, 0x9e, 0x37,
    0x35, 0x78, 0xb7, 0x37, 0xbf, 0x5b, 0x96, 0x37, 0x66, 0x5d, 0xa2, 0x37,
    0x7d, 0xd1, 0xc3, 0x37, 0x55, 0x28, 0xd9, 0x37, 0x1d, 0x16, 0x8e, 0x37,
    0xd2, 0xc2, 0x91, 0x37, 0xb2, 0xed, 0xb0, 0x37, 0x31, 0xcc, 0xab, 0x37,
    0x38, 0x5a, 0xb8, 0x37, 0x13, 0xcf, 0xa0, 0x37, 0xc5, 0x81, 0x4c, 0x37,
    0x12, 0x00, 0x00, 0x00, 0x74, 0x66, 0x6c, 0x2e, 0x70, 0x73, 0x65, 0x75,
    0x64, 0x6f, 0x5f, 0x71, 0x63, 0x6f, 0x6e, 0x73, 0x74, 0x34, 0x00, 0x00,
    0x01, 0x00, 0x00, 0x00, 0x20, 0x00, 0x00, 0x00, 0x5e, 0xfd, 0xff, 0xff,
    0x00, 0x00, 0x00, 0x01, 0x14, 0x00, 0x00, 0x00, 0xe8, 0x00, 0x00, 0x00,
    0x05, 0x00, 0x00, 0x00, 0x00, 0x00, 0x00, 0x09, 0xf4, 0x00, 0x00, 0x00,
    0xac, 0xfc, 0xff, 0xff, 0x08, 0x00, 0x00, 0x00, 0x8c, 0x00, 0x00, 0x00,
    0x10, 0x00, 0x00, 0x00, 0x00, 0x00, 0x00, 0x00, 0x00, 0x00, 0x00, 0x00,
    0x00, 0x00, 0x00, 0x00, 0x00, 0x00, 0x00, 0x00, 0x00, 0x00, 0x00, 0x00,
    0x00, 0x00, 0x00, 0x00, 0x00, 0x00, 0x00, 0x00, 0x00, 0x00, 0x00, 0x00,
    0x00, 0x00, 0x00, 0x00, 0x00, 0x00, 0x00, 0x00, 0x00, 0x00, 0x00, 0x00,
    0x00, 0x00, 0x00, 0x00, 0x00, 0x00, 0x00, 0x00, 0x00, 0x00, 0x00, 0x00,
    0x00, 0x00, 0x00, 0x00, 0x00, 0x00, 0x00, 0x00, 0x00, 0x00, 0x00, 0x00,
    0x00, 0x00, 0x00, 0x00, 0x00, 0x00, 0x00, 0x00, 0x00, 0x00, 0x00, 0x00,
    0x00, 0x00, 0x00, 0x00, 0x00, 0x00, 0x00, 0x00, 0x00, 0x00, 0x00, 0x00,
    0x00, 0x00, 0x00, 0x00, 0x00, 0x00, 0x00, 0x00, 0x00, 0x00, 0x00, 0x00,
    0x00, 0x00, 0x00, 0x00, 0x00, 0x00, 0x00, 0x00, 0x00, 0x00, 0x00, 0x00,
    0x00, 0x00, 0x00, 0x00, 0x00, 0x00, 0x00, 0x00, 0x00, 0x00, 0x00, 0x00,
    0x00, 0x00, 0x00, 0x00, 0x10, 0x00, 0x00, 0x00, 0x0e, 0x4b, 0xed, 0x3b,
    0x98, 0xe2, 0xa2, 0x3b, 0x70, 0xad, 0x99, 0x3b, 0x1b, 0x6f, 0xa0, 0x3b,
    0x0b, 0xa4, 0x98, 0x3b, 0x78, 0x8c, 0x97, 0x3b, 0x1f, 0x6b, 0x39, 0x3b,
    0x81, 0x62, 0x5c, 0x3b, 0xf0, 0x7c, 0x7f, 0x3b, 0xbb, 0x17, 0x31, 0x3b,
    0x12, 0x7d, 0xfb, 0x3b, 0xe0, 0xe9, 0xc7, 0x3b, 0xdc, 0x87, 0x8a, 0x3b,
    0x37, 0xbc, 0xd2, 0x3b, 0x9c, 0xac, 0x50, 0x3b, 0x82, 0x38, 0xe2, 0x3b,
    0x12, 0x00, 0x00, 0x00, 0x74, 0x66, 0x6c, 0x2e, 0x70, 0x73, 0x65, 0x75,
    0x64, 0x6f, 0x5f, 0x71, 0x63, 0x6f, 0x6e, 0x73, 0x74, 0x33, 0x00, 0x00,
    0x02, 0x00, 0x00, 0x00, 0x10, 0x00, 0x00, 0x00, 0x20, 0x00, 0x00, 0x00,
    0x76, 0xfe, 0xff, 0xff, 0x00, 0x00, 0x00, 0x01, 0x14, 0x00, 0x00, 0x00,
    0xe4, 0x00, 0x00, 0x00, 0x04, 0x00, 0x00, 0x00, 0x00, 0x00, 0x00, 0x02,
    0xf0, 0x00, 0x00, 0x00, 0xc4, 0xfd, 0xff, 0xff, 0x08, 0x00, 0x00, 0x00,
    0x88, 0x00, 0x00, 0x00, 0x10, 0x00, 0x00, 0x00, 0x00, 0x00, 0x00, 0x00,
    0x00, 0x00, 0x00, 0x00, 0x00, 0x00, 0x00, 0x00, 0x00, 0x00, 0x00, 0x00,
    0x00, 0x00, 0x00, 0x00, 0x00, 0x00, 0x00, 0x00, 0x00, 0x00, 0x00, 0x00,
    0x00, 0x00, 0x00, 0x00, 0x00, 0x00, 0x00, 0x00, 0x00, 0x00, 0x00, 0x00,
    0x00, 0x00, 0x00, 0x00, 0x00, 0x00, 0x00, 0x00, 0x00, 0x00, 0x00, 0x00,
    0x00, 0x00, 0x00, 0x00, 0x00, 0x00, 0x00, 0x00, 0x00, 0x00, 0x00, 0x00,
    0x00, 0x00, 0x00, 0x00, 0x00, 0x00, 0x00, 0x00, 0x00, 0x00, 0x00, 0x00,
    0x00, 0x00, 0x00, 0x00, 0x00, 0x00, 0x00, 0x00, 0x00, 0x00, 0x00, 0x00,
    0x00, 0x00, 0x00, 0x00, 0x00, 0x00, 0x00, 0x00, 0x00, 0x00, 0x00, 0x00,
    0x00, 0x00, 0x00, 0x00, 0x00, 0x00, 0x00, 0x00, 0x00, 0x00, 0x00, 0x00,
    0x00, 0x00, 0x00, 0x00, 0x00, 0x00, 0x00, 0x00, 0x00, 0x00, 0x00, 0x00,
    0x00, 0x00, 0x00, 0x00, 0x10, 0x00, 0x00, 0x00, 0x17, 0x73, 0x55, 0x38,
    0xa7, 0x84, 0x12, 0x38, 0x59, 0x3c, 0x0a, 0x38, 0x37, 0x50, 0x10, 0x38,
    0x9e, 0x4d, 0x09, 0x38, 0x23, 0x52, 0x08, 0x38, 0x8c, 0xc9, 0xa6, 0x37,
    0x7b, 0x3d, 0xc6, 0x37, 0xf1, 0xd0, 0xe5, 0x37, 0x53, 0x4c, 0x9f, 0x37,
    0xf5, 0x37, 0x62, 0x38, 0x70, 0xd3, 0x33, 0x38, 0xc9, 0x38, 0xf9, 0x37,
    0x69, 0x8f, 0x3d, 0x38, 0xd2, 0xb4, 0xbb, 0x37, 0x5d, 0x7d, 0x4b, 0x38,
    0x12, 0x00, 0x00, 0x00, 0x74, 0x66, 0x6c, 0x2e, 0x70, 0x73, 0x65, 0x75,
    0x64, 0x6f, 0x5f, 0x71, 0x63, 0x6f, 0x6e, 0x73, 0x74, 0x32, 0x00, 0x00,
    0x01, 0x00, 0x00, 0x00, 0x10, 0x00, 0x00, 0x00, 0x86, 0xff, 0xff, 0xff,
    0x00, 0x00, 0x00, 0x01, 0x14, 0x00, 0x00, 0x00, 0x48, 0x00, 0x00, 0x00,
    0x03, 0x00, 0x00, 0x00, 0x00, 0x00, 0x00, 0x09, 0x54, 0x00, 0x00, 0x00,
    0xd4, 0xfe, 0xff, 0xff, 0x08, 0x00, 0x00, 0x00, 0x20, 0x00, 0x00, 0x00,
    0x03, 0x00, 0x00, 0x00, 0x00, 0x00, 0x00, 0x00, 0x00, 0x00, 0x00, 0x00,
    0x00, 0x00, 0x00, 0x00, 0x00, 0x00, 0x00, 0x00, 0x00, 0x00, 0x00, 0x00,
    0x00, 0x00, 0x00, 0x00, 0x03, 0x00, 0x00, 0x00, 0xf0, 0x16, 0xd2, 0x3b,
    0x1f, 0xf3, 0xcb, 0x3b, 0xcd, 0x9d, 0x02, 0x3c, 0x12, 0x00, 0x00, 0x00,
    0x74, 0x66, 0x6c, 0x2e, 0x70, 0x73, 0x65, 0x75, 0x64, 0x6f, 0x5f, 0x71,
    0x63, 0x6f, 0x6e, 0x73, 0x74, 0x31, 0x00, 0x00, 0x02, 0x00, 0x00, 0x00,
    0x03, 0x00, 0x00, 0x00, 0x10, 0x00, 0x00, 0x00, 0x00, 0x00, 0x16, 0x00,
    0x1c, 0x00, 0x18, 0x00, 0x17, 0x00, 0x10, 0x00, 0x0c, 0x00, 0x08, 0x00,
    0x00, 0x00, 0x00, 0x00, 0x00, 0x00, 0x07, 0x00, 0x16, 0x00, 0x00, 0x00,
    0x00, 0x00, 0x00, 0x01, 0x14, 0x00, 0x00, 0x00, 0x48, 0x00, 0x00, 0x00,
    0x02, 0x00, 0x00, 0x00, 0x00, 0x00, 0x00, 0x02, 0x54, 0x00, 0x00, 0x00,
    0x64, 0xff, 0xff, 0xff, 0x08, 0x00, 0x00, 0x00, 0x20, 0x00, 0x00, 0x00,
    0x03, 0x00, 0x00, 0x00, 0x00, 0x00, 0x00, 0x00, 0x00, 0x00, 0x00, 0x00,
    0x00, 0x00, 0x00, 0x00, 0x00, 0x00, 0x00, 0x00, 0x00, 0x00, 0x00, 0x00,
    0x00, 0x00, 0x00, 0x00, 0x03, 0x00, 0x00, 0x00, 0xe3, 0x44, 0xbc, 0x38,
    0x53, 0xc4, 0xb6, 0x38, 0xb5, 0x19, 0xea, 0x38, 0x11, 0x00, 0x00, 0x00,
    0x74, 0x66, 0x6c, 0x2e, 0x70, 0x73, 0x65, 0x75, 0x64, 0x6f, 0x5f, 0x71,
    0x63, 0x6f, 0x6e, 0x73, 0x74, 0x00, 0x00, 0x00, 0x01, 0x00, 0x00, 0x00,
    0x03, 0x00, 0x00, 0x00, 0x00, 0x00, 0x16, 0x00, 0x20, 0x00, 0x1c, 0x00,
    0x1b, 0x00, 0x14, 0x00, 0x10, 0x00, 0x0c, 0x00, 0x00, 0x00, 0x00, 0x00,
    0x08, 0x00, 0x07, 0x00, 0x16, 0x00, 0x00, 0x00, 0x00, 0x00, 0x00, 0x01,
    0x18, 0x00, 0x00, 0x00, 0x2c, 0x00, 0x00, 0x00, 0x4c, 0x00, 0x00, 0x00,
    0x01, 0x00, 0x00, 0x00, 0x00, 0x00, 0x00, 0x09, 0x68, 0x00, 0x00, 0x00,
    0x02, 0x00, 0x00, 0x00, 0xff, 0xff, 0xff, 0xff, 0x06, 0x00, 0x00, 0x00,
    0x0c, 0x00, 0x0c, 0x00, 0x00, 0x00, 0x00, 0x00, 0x08, 0x00, 0x04, 0x00,
    0x0c, 0x00, 0x00, 0x00, 0x08, 0x00, 0x00, 0x00, 0x14, 0x00, 0x00, 0x00,
    0x01, 0x00, 0x00, 0x00, 0x80, 0xff, 0xff, 0xff, 0xff, 0xff, 0xff, 0xff,
    0x00, 0x00, 0x00, 0x00, 0x01, 0x00, 0x00, 0x00, 0x81, 0x80, 0x80, 0x3b,
    0x20, 0x00, 0x00, 0x00, 0x73, 0x65, 0x72, 0x76, 0x69, 0x6e, 0x67, 0x5f,
    0x64, 0x65, 0x66, 0x61, 0x75, 0x6c, 0x74, 0x5f, 0x6b, 0x65, 0x72, 0x61,
    0x73, 0x5f, 0x74, 0x65, 0x6e, 0x73, 0x6f, 0x72, 0x5f, 0x34, 0x3a, 0x30,
    0x00, 0x00, 0x00, 0x00, 0x02, 0x00, 0x00, 0x00, 0x01, 0x00, 0x00, 0x00,
    0x06, 0x00, 0x00, 0x00, 0x02, 0x00, 0x00, 0x00, 0x24, 0x00, 0x00, 0x00,
    0x04, 0x00, 0x00, 0x00, 0xf0, 0xff, 0xff, 0xff, 0x19, 0x00, 0x00, 0x00,
    0x02, 0x00, 0x00, 0x00, 0x00, 0x00, 0x00, 0x19, 0x0c, 0x00, 0x10, 0x00,
    0x0f, 0x00, 0x00, 0x00, 0x08, 0x00, 0x04, 0x00, 0x0c, 0x00, 0x00, 0x00,
    0x09, 0x00, 0x00, 0x00, 0x04, 0x00, 0x00, 0x00, 0x00, 0x00, 0x00, 0x09
    };
    const unsigned int pong_modelAdvanced_int8_tflite_len = 6984;
}
